node {
  name: "input"
  op: "Placeholder"
  attr {
    key: "dtype"
    value {
      type: DT_FLOAT
    }
  }
  attr {
    key: "shape"
    value {
      shape {
        dim {
          size: -1
        }
        dim {
          size: 784
        }
      }
    }
  }
}
node {
  name: "Variable"
  op: "Const"
  attr {
    key: "dtype"
    value {
      type: DT_FLOAT
    }
  }
  attr {
    key: "value"
    value {
      tensor {
        dtype: DT_FLOAT
        tensor_shape {
          dim {
            size: 784
          }
          dim {
            size: 10
          }
        }
        tensor_content: "\302E-=\225\242\350;\355K5<!\002\255=\343-\266\275\3738\030=c\241+>\2405\234=\312\377\230\275\302Zv=k^R=+\263\027\275\353\303\332<\223\237\211=\373\252\265=\253\nK\276Q\260H\275\333\235\027\273K\274+=\n2X=\212d\355=\035\340\204\275\r>M\275\177`\312\273\331\200\017\276\250j\374<\254X\224\274?5\002\276\000\265\303\274\023\374\376\275\313\240\371\275`\304\340=\034|-\276`\246h=xBC\275\322kp\275\223m\226\275\300r\316<\262$8=\245\351\235\275\r\250\236=\313(\035\276\003D\337=\336\320\014>\336\314\250=]&\327<\227/\215\274\334BC\276\035\227\362=;\246\262\275 \307\316<\273-\177=\310\3156=KU\365<\037=\206=\037\350\253=5\256\260=W&o=\013\363j<\232\374P=\202\222\334\275c\361\213\275\257\214!=V\035\031\276\344M\303=\342\324\304\275\251\273\300\274\233\363\003\274Pv\266\274\203q\261=\000Y\007\275\233<\035\275\035\020\000\276c\360\275\275\324{\006>\037\346W\275\266\334,=O\227\323=}\356\256<\3102\330\275\300\276\'\276\217\341\207=\323t\275\275\033|:\274\351\362\240:\373*\024\275\001d7=\310\270\\=:4\\=\3063\227=\232\225\021\275\260\260\333=O\243 >hC\342=\3276\240\274\263o2\276\"c\350\275\345\317\026\276\366\244\014=\335r\024<#\004\253=\337\343\334\275X\232\204=S\2623=\371\323\203\275\352\375\n= \276\202=\240\345,\275RL\352<\035\022\235\275TV\250=\300\356\021>1P\220\275\263\311_=\237\245g=\347*\267\274\223\023\370<\343\t\270\275\3177)>\033\254\344\274-a\365<\311\037\004\275\263\227\n\276f\344\372=g\355\023:\014\3727\275\367\017F\275\027\345\227=.\322\323\274I}\357\274qh\262<\363\024\004\274\277\256*>\016\210\024><1\006>\0354F\275\030\276\003>\270\351\352;\246\250\221=\3243Q=\214a\270=^\232\006\274\275\341\351\275hCd\275\366\033\014\276n\034\337<\005I)>\201 \016=\354\001\017\276Q\025\270=\270\342\211={\023\007=\362\312\253=\217A5\276\250s\316=\t\252\014\276XTw=\302f->\rb\023\275\033u\231=\227\324\355<\203\222\302\274\242\233\022\276\325%|=\341\376\305=I\265\273=\2505:\275\313S\013=\236\344\020\276\270\367\372\274%$9\276\326\360\n=JC\344:_g\013>\013\023\207=E\300s=\370\310Z\275\027\301\203\275\020\271\357\273\r\267\313;\273Q\350\275I\264\261\275J7\330<\277\245R<[\202A\273\016\017\226=\025\252t\2754\324\010>\260\242\262\275`\014\356\2751\214\020\276{\031\356;\007\272\271=uM\324=O\246\273<\026\255\014<G\227\023>K\213\304\275\215\253b=(\366\204=(e\023\275\343#\254\275\274#\275=ZV\205\275 \373\027>\274H!>*\t\013\276\377\002\017>\365\325\312<\003c\215\275R\'e\275y\304\232<`\360F=Wa\314\274\260\271\224<\316f\254:?\264 =\212\324b=\263\324\177\275\'\366\267\275\376\030\232<\317\242I=_Z\260<\307n\211\275CF\002>\362\014\273=\201\334\020\2767\'b\2747n\236<\226\230\023\275S\243\033>\322X\307=\230\265\316<[\r\336=\033\346\277=\355\304\027=\024\302\303<\223%!<\275i\204=Dr\225\275{\n\260=\201\316\021>\023\263\306=\357m\344=\n9\022=\2329\002\276C\033A\274\036M\003\276\223\266D\274#4\000\276\307\357\255\2740ni\273?S\372\273s\340\207=G\347*\275jg\342\274\337\204\313<\222\236\013\275\364\014\242\274^\200\266\275\0035T\275\312L\357\275\217\313\260<W^\010\276K6\307\273]\366\201\275F\341\004\276\014\205$>\227K\347=\203rD>?\355\035\276OZ\251\272;\352\212\275\304\372\230=\230z\316=\035\200\366=\245\257Q\275)5\'>F\346\220\275\373\217,=c\233\226\275\002\357B=\336\\\275=m7\344=_\351q<K|\302=>\376\210=D8\035\276\264\266\025\273\333\032\266\275;j\254\275\3442\t=\327\036t\274\324\271\037\276\370X\235<\265\300\021\273E\253\275\2750R\321=>\341\022>G\267\241\275\037E;\276\200\010\327=\023\023F=\177\326%>\252\r@=~\354\272\274\2221\372=\357h\271=*6\227\275\266\312\233=1\223@=\247\031\321\274%\261\335=\307\201\017\276\r\216\246\275#\200(\274eYy<m\351\352=p!f\275\031#\226=,\037\306\275\315\n^=w\362\004>\242_\226=x~\331\275\205@\221\275}U[\275\213?\234=;\351+>\252SX=0D~\275\230|L<\025\027\212=\310\345[\275\316S\t>\327\343\335=%\236i\274\216\370\r\275d\206\313\275{\255\004>\275MW\275&\303=\2765\235\371=G\\J<\272m~<\332\236M\275\310C\030<p\251o\2750\375\334:u\320\305;\024F\240\275\257\342\025=\353\272\315\275\213\007\224\275\321\'\255<$!\317=L\004Q\274\225\364O=\021[)>\377\000\354<\332g\220\275^O\357\275\312\333==\005;\270=\340t\235=\010\014\032>I\021\000>s\313\332\275\340#f=\215\002\006\275\321\301\253\275I\235\334\275\024\273\344<\033\2764>>\326\315\275\204\255\t>J\202\030>\364\225v\275\n\3012\276$\177\333<V\366\371\274B\354\307\274\226\337\003\274\222\321q\274|v\332;\271\247\313=\205q\327\275jD\222\275\230\004\211=\266\r\331\274X\004\267\275 \311\276=\263},>b\\\226\274Q`\016>\231\307\346=\356\324\177\273\014\006\377=\264 \020=+\204\244\275C\324!>\272L!\275\334\307(\276\222\034[=\346+\220\275w0\023=\274\253\200\275I\035\307=\033:{<gP\204\273\307\336\305\275\257z\343\275C\365\261\275\274\327Q<\032p\000\276\240N\217\275\357\260\024\2760\217\270=\255\022{\275<\021\201\274\003U\245;^\337\212;\204\332Z<V&\325<\246\300\345\275g\200f=\334\220\270\275\305\202\245=^\3271\275\222\215\322\274\346\024W\274\031\351\370:t\024w\275\025\325X\275\336R\241\275F*\222=A^7\275G\261\235=I{J\274\317\267\217=\357b\312\275~\273S\275\320\352L\272\355\0167\276\340\303[\274\332\037\266\274\372\227\215\275I\264\007\275\243\224\333\275\311\366\335\275+\265\261<\020\213o<\223~\247=\336.G=o\215]<\002\237\265=\021\301\237\275<\274\031\2758\306a\275\360d\246;\2619\214=B\215\271=1p?\276\233~\361\275\224\004-;\347\252E\272\323\366d=\255\\\036>\362 l</\021\300\274\205\324,\275d\243\330=\2455\263\274\342J\261=\"\020\271\275\336\224<\275U\205\224\274(\022\362\274W\213\017>\003U\020\276?\002\000=\2774\240=\275\037\267=-Y\274\275t\272\017\276\t\205\212=\324A\220=\207\336\314\274\034\370\311<\2008\233\275\215\366\016\276Io\037\275\277;\346\275H\360\327=\272\314\275\275\271~\030\276\034\303>>J@\030\276%[}=\340@l\275\314\211\366\274\212\363\325\275\222\026\025\275\324\220y=\345\312\000\275\300\242\271\275o\327\235=\025\325\034\275\0365M=z\335\363<\246L\033=\372\244\236\275D\254\022>\352\025k=\361\226\233=Q\311V=\233\221\256\274+b@\275\215\013\200\275\325<\366\275j\356\001\2766`(\276\347:\226=_8\033>\010\337\200=X\316\222\275O\201\276;o\000L<t>\216=h\376\241\275(\"\342=\026\261$>\254\264C\275\031\333J>\210\304\004>w\026\003>H\352U<\211\243\213\275}\357\215;\343\324\245=\353\317_=\212)\016\273\272\352\375<\\+\230=\235\301\034>\376|\220\274\273\212\036\275\247\363\277\275\017\237R<\223T\255;\232]w\274n[>>k\322\246=K4\026=\273[\266=?b\332\272\017\033\020\276mRp=\026:/\2766\031<\275\341u0>P7\037>o\236_<S\351n\275\340\350o\275\2612\021\275\003\330\302<&\302.\276|T/\275\230\272\236;A~\023\276\217\335\314\274\033\023^=?\2255>\033\260\264=\006h\034\276\272\206\260=\3355\364\275\3120\364\275\257\215\203\275\212m\005>\337\222C\275\340\335\201=[\326\010=\342>\000\276\004\242\221\2735\326\030\276\252W\013<H\224I>\265\237H=+\344\205\275 X2=\302o\231\275G\366\264\275E\365\203\275\2659\346\274;f\243=qn3>\377\302\t\275\226O\010\275\010j\365\273\267\034L\275\022\000\371=ljW\274\242\016\306\274&e\217=\200\r\307\275I\026\340\274\267:\347\275\031\222Q=\203:\202=\327\203\004=\315J\361\273\234\340\205=\372\354\212=\337\016\261\273\313\301\262=\354Jh<\216\334\004\276\216-\363=\030\366\371\273J\'\t\276\357\214\211=\345dY\275\025\316\203=}\337\217=\324#\263\275\004\366+\276s\023\"=\212\256\273=4H\276\275\271\017\314\275\233\260b<\365\342\345=\237$D;9\344h=0\265_=Od\217;\367\254~=t\005\221=\252l\356\275%p\262<\177\334.\276\2415\025>(\250\342=\017\273s\275\022\354\377\275p\221[>\346\364M>\344W\361\275\327Qy<6z0\274\3256\226\275\261\'i\275\357=$>~Wn=a\211j\275\306\274P=\007_\026\274,\325\243\275q\321\365\275\316\231\'=\364R&>\201\275\301<\270\230\372=\221]J\276\032\026F\276E\304\313<\350\006G<!\375\350\274\350\303N\275\352\360\303=\265m6\275\351OE\275\213\244\221;\307\263\272<\016/ \276\212\224\243\275\220\245\250=\266m\253=\267/\324<\344R\004\276\321\236\200\275\r7^\276E\345\337\274\361&l\275\276aW\275\240#\344=\226u\002>~\002\336\275\345\222:\276\306\251X=8\315\017\274\344g\364\275\325\021\266=\234\311\301=\227\204\036\275\302\n\311\275\001\200\002<\353\036\240<N?\010=3\0011\276\312\177q\274}\220f=\252\362\006\274r\275p\275z\313\257=\025\332\360\275\372\204\032>\300y)>\357\230\220=}n\301\275x\031\n\275$\031\271<\021\t\024\2753(\301\275\265R\254=)4Z\275|5\377=\227*\343=:\3452>L\030\322<1$\023>V\255\374\275\354&\352<\277\265\024\275\316\273\273=\221\232M\273\031\3427>\211.\351\274\316\224\250\274\276\264[=\353\311\226=\301\2679\2768\214\034>\032\353\247=\272g3<\010\213\026>\315\214\027=\315\360\r\275\262\300\205<\"\374\302<\\\231\361=\0311\025>\321\242\322\275\316\357,\274\270\333\254\275L|\270;\365\353F=+\263`=\230^\322\275\372]\305<{\340\220\275\177\310P\274[\356,\275W\326i\274\242\350z=\037\255G=\034/\262=\300\274\355=\264\241\275\275a\324\216<o\367\r>.\177e\275\353\356\013>}\2120\275?\371\375=\367\217U=v\253g\274\204L\335=\263\021\203\275\001\355S\274\264\361\314=;7J\274u\3464\275ET\222=M=\033\274,\312\342\275=\200\221=\212\345\301<\336\310\313<^\337\307\274q\222\032=\224D\354=\276\223\357\275\255@\221\275\271/\257=\032|\376\2751\226\031\275\035\317\016\276\332\242\214\274S\307\211=\221g/=\223v\245\274\206\253s\275~\275*\276S\2558>\311]\022=H\377)=\363\311Z=eE\244<\217\010\215=\253H\232=\371/s\274a\264\025\275o\354\337\275\212\257\324\275\237H\274=\335FO=3|u=\337\2431>\272Z\006>\336*+>\266\276r\275\023S\344\273\224\353\332\274cb\330<\377\013~\2750\345\304=r~\323=\022\2073\275\003\356\262=j\341S=\334\365\202\275{G\254\275\250\377J\2750]\346\273_\263{\273\263\367\354=\340\305\226\275%\242\337=\212\200n=\244X\303\273~\365!\274\277\270\223\275@\rp\275\264\014\253\274\373Ro\275\377\3350\275\247\370c\275\355\304[=\342\301\231=\034T\232\275\300\341\010>\263\345\356\275\2571\221\2756\007\257\275\324$\022>>\364\214<\305D\027>\033/\213\275\002\034\037\276\242\232\221\275\013H\022<\212\016\221\275@\035\023=\000\333\344\275\267!d\274\0224U<\301R\">\372\236\001\275n\356\256\2759\'+::R\\\275\3458\023\276\022y\261=\017\330\250\274\'\374\016>Me\013=pJ\036\275V).=6\306\200=\355h\036\276\032\303t\275\034\244\362\275\271\343\002\274\3721\265:M\312\351\2723\212\257\274\316X\210\275;\376!9K\200\343\275\251\261\342\274v,\270<\2477\375\274\245\336\002=\334\036\334<\333\342\233=\nN\261\274J\242f\275\372\370\343<\307m\013=\271\000\300=Y\326G\274\034\350U=a\344\010=\\\326\271=WNT=\230\026t=\317X4\276\306\321\363\272\273\356\222=\276\246\243\274\026\224\362\271J=\352\274\024\277\252\275D\266\204\275<\270\020<?\251G=\220\r=\276\r\241\226\274\236\325\'<{\321\r\275\211\325\225\275\331a\333=2\364\272=\324\270\272\274\223\311\363\274\363Z\351=\001D\235=B\226\315\274C2\244=y(X=\001\250\306;1`*\275\003\347\357=A\020^\275mC(=\3771}=P\304\335=\306U\312\275\021\267%\2753\306\210\273\337\\\202\274f\217\037\272\373\3550>\360\313\030\276\367\237\262\275\263\336I>\362\2623=v\2144\275\211c\316\2751{%>\026_\226\275\222C\363=\0102h=!\225s\275@\206\302\275\375\301@=\3112\360<\323\334\352=\364\341w\275\254\306\325=x\205\254\275\202\005\\<\r\300\305=\210f\246\272\211\307\336<K\276\221=\006\026\321\275}\275M;,\330\267=\306k\253\275\246$_\276f$\333=\231x\333=\344\037\253\275\221HD=\334\346i\274\356M\213\275-\354\016=\3370\223=H\247\353\275 ak\275Fu\374;\017\200\332=\271\354\006\276\364\307\212<!\255u>(\227\003\276\352b >lt\253<\001Y\004\272\'\377\263\276\304L\267<!wU>\240\335\226<\364Y\317=DP\202=\376\236\317<\3757A>\250\263\254\274\t,\201\276H\205e\276\351*\235=\241\327)>\230g6\276&\255\257;A\362\261>\367\322\234\275]Sx<)\373\244=\001M\300=\276)k\2768\367\251=\215q$>\201\002)\276\356\220\337=0\213\022=\214\235\345=~mk=\330\320\342\273\225\264\341=\375\322\326\275\363sJ\275\327\'\376<\356\320\227;\315\256]\274b\215\021=\355\261\305\274A\3525>\017\252\310\275h_+>.\211\221\276}P\231\274\207\0071=iz\032>;\342\347=Y\232J>\320$\207\275\305\331_=~\203!\276\334t\301=\007F\210\276-a)\275n\252\\\275,\361;=\215~\322\274P*H=\244\341\026=a\343\000\276+\345\275\275\025\017e>\321S\016\275\240j\236\275\366\350\036\274\212\n\031\273\002^\235\275\323K\037>\364\267B\275>\314 \276UVG\275\274\331~=\302\332\014\276 \254\224=\204\264\030\276\020\301v<#\356\033>I\344\310=\250\244\315\275@\334\033\276U\261\024>\312P|>\362\334G=[N\031\276\260\372\001<7\n\377=\301\272I=\375\326\002>1\351\234\275}\316\210<]\363\250\273jv\262\275N\0259\276\007\326\325\275\270V\001>\304d#=\360\247\315<i\220#=\013&\260=.\212\003=\255<\234=v\003\341=F..\276\324\274\306=\223\3749\2757\264\'\276\214\255C>\244\346\204\275>\344\240=o\224\317\275\245\201\252<\251@`\275\252\251\000\276\034\177\252=hY\203;J\343\246=\021\341\004\276\034v\032>\301\246\203=\222S\337\275X\355\030\276\234\207\200;y9e=;\327\032\276~\264\016\274\304\332\356\275\217\331*>\306\374\036>\234\370G=\"\234T\274\037\235R=tZ7\276\347\327\000>\002\017\265\275\275n\030\275*\017\326\275s@\215\274\034\210\023\275\241\327\255=\311o\003\275?\230\307<^\324\007=_P\263=\013\210\350<\302\241\324\274\254q\006=\017\027\323=\356\302\227=\237\265\324=\221$\366\275\000\351J=P\272\034>\223\326\000\276\334\321\214=\263\010\260=\306_\246<4\214\333=\201\347\272\275\213\343\272\275/?\211\275\366\247\371:F\313\001\276p\227\263=\240]\030=\330c\254=F(;\275\235}\315\275\030\273\026\275D\3214\275U\350\005=\252\231\216=\026U\032\276\n\372\364\274IV>=H\004\307=\222\020o=S\231\370\274\316\264*\276\300N\221<g\0012\275\234\214\236=\261\347Z=\223\270\300\275*[3\276j\256\022\2767P\345<\261\254\203<G\341\256\275\205\321C\276RuS;^\201\243=\036L\254<Z\271\243=lFJ\2710\002&>\260\035\361\275\036\264\241\275\261\250\022>\364\350\"\276\261P\323<*R\033=F\357x\275\304y\312\271.PY\276$\254\343\275\004\224\024\275\253\303\325\275\317m\231=\246\302\227=v\355.>bga=\265+\251\275\316\2418\276V\020\323=\273t >+.\216\275\313\306\027\275\264a\345=\315FY<FS\225=\324\030)>\245\377\254\274\004\247T\275\377\266\230<RF\276=\357\222\254\275\262\351,\276f\317^=e\356+\276\002> >>t\273\275l\217*\276O\330\036\276\324\353t<\343\022\334=\002\021\022\274\347\037o\276\203\267#>\275@\315\275(Y\013>\305\260\035=\204\276\016\276\210\2000\276\022\325\235\2757X\310>\220\225\267\274\327\272\036=\217\377\203>\254W\250\276N+\206>\014\272\n=\274\367\240\275\030\033+\276\237-^\275\252 \373=d|\366\2753qp=,\212X>\212p\223\275@\250\235>c\220;=\323\004\372<R\023$\276\036y\246\2750\3630>\341\334K\276.\264o\276\034\370j>\221\302B\276g\367T>\031\217\234>\264J\242\275\336\235\307\275\251\027\203\272\210\r\253>\271\330T=3\300\320\274\330\000g>\036T\246\274\022*t>\330\363\200>\257>\200\276\272\340\242\275\002\245\353\275^,H>\316\357\303\275|\307\230=\246\374x>\212\346\205\275\334\245\276\273\262\205\222>\365F\232\275&\036\235\274hL\034=\002\r$>\337)\223=(\364\014\276\374\325Y>\025\016\351=\230\221\224\275R\035(>\330\223\016>\257 \364:_L\007<\026~\266>N\004\307;\341\014\237\275\226\277\254=N\025\375=\266\260\315=\2678\233=\272\211F=\210:\213\275\316\344R\274\3470\346=\325`?=rY\376\274\237\035\361=M\370T\274/\356\351\275\214x<<\315\200\342<\275\0011\276\364\237)=\354\220D\275\304Q\337=\336\372\016>\201\247\323==\376\000\275\324\265\333=\333N\354=^\030h>5@<\276\227\353\006\276\350\310\330\275X\001*>\334J\357<\206L\233<q|\344\274\034\213\227\275\331\022k\275:\031\223=\375\004\220\275\260\033\222=v\363L\276\037P\254\275,c\320<\265s\\\275\351\244\303=\2758 \276f\274\336\275\224Z\257=qF\005\276\312\302H\275R\017\301\275\017X->)]\330<^\304W=\337)6=\020\244\301\275\322Mi\276z\242\224=X\353H=z\024_\275Q;=\276\261!\214\275\'<\033=>\274\373\274\211\333->P\325\241\275\251e\331\275\336@\216>\372JY\273&\010U<\030L\241\274\377Z\216\274i\367\261=En\244=-\232\267\274\022\005/=\203t@\276h/W=r\345\374\275\311|\201\275y\032\306<\375\032M\274\021\016\010>\351\002\261\274{@\241\275X\211\240<s\322\363\275?<\311\275\034t\027<\037sv\274\0308#\276\346]\240=95\261==h.=f\374+>R\3560\275\007g#\276jn:\275n;\035=\377\331R\272\026\330L\276\365U\364=\233\360\347\275#H\353=\010N\r\273\026\316\2167\274We\275\344M\346=b\217s=\222T\302\274\313z\001\276\3758P=\013\226\231\275\236\033\256\2749\270N\275\373\004T=\252/n<\274\374\305=\000QY=\304\350\257=w\206\213\275I\372\010\276\207?\r=\303\006\271\271\353B\356=9\264\017\275\025\253\\=\310\227\002=kgI=\000w\321=\335\261m=2\037,\275sz\225<B\347\013\276\032\357\267\275y\214>\274\371\3544\275^V\020\276[}\363\275\006*\224=\003X\252=Z\251m\274s>\036>m\264\'>8\277\332\275\n\343a\274\212\261\230\2759\240\267\275\017\231\330\273X&i\275e\334S>\312\"\215=z\265\306=\357\267@=a)\003\276`\217|;\203R\317=H\377\r>D:\272=4\010\345<\352\300]=9\247S\274\223\007\211\273\034\307\272\275\031X\364=O\3672>9\035\021>\204\236\366\2744^\033=\232\227\013\276\371\345\255=\265\205y=b\355\271\275mi\005\276\257\311:\275lA\300\272C.\021>\316\002\243\275\235v\010\275\347%\355\273\'w\265=\202\303y\275\204\370\030\2751\333\310=K\263\257\275\330pM=\215\021T=\333\305\034=\317\331C\276\271\372\211\275\277\302\237>a\344\004>\226\001K\275(u\034>+3#\276\236\302\016>\206\213\002>\2345\r=\346%\213\275\256z\344\274\341\363\005>\nYk\275\260\rW<\007=\340=VKh\275u\237\360=\342>\206>\026z<=\305\001\244;UD\033>\332\333G>U\306o\273y\202-\276\320\201\343<\\j\377\275J=*>\2414\254>\263_\371\275\272p]\276\026h\245\274\244\237\236>\206|\335\275!\353\222\2750\365\013>I\264\000\276\000\362\216<$\3745>x/\274<\334\213\326=\375\246$>\002:3>\177\320\272\275\250J:\276\022\323\341=\235\230*\275\255B\253=5\241\203>6\243M<m0\217\275M9\232=`\225Y>\0044\271<\023\321\000>o\360i>P\017\r>\360\363.>\373\372K>\3568\303<H\273\027>\315\317\335\2759\261~>\330\317\272\275\324]\254\275{\024\217>G\004\275\275\356\016\300=\020\353\221>\213JP\275;\312\256=?V\312=l\202\202>!Rw\276pk\236<\016\376\305>\234\"\303\274\212\362f>\002`o>\315\323\177>\203x1\275\305}\002=\244B\211>\345\371y\276\t\204\005>\326\037\221>o\020\026=\022}\317\275(\377y>\333\002n>`\251\314=\201\232\361=d\256]>;\2313\276\271\027\245=e\233\032>\037\2366=5yS>\275\234\302>\200\017\235>,f\310=\200\312\034>|\364D>\366>\017\276\261\313\016>\300y\226>\275yG=\004w{\275?*\031>l\304\200>\330\211\311:\034\266P=\026R\030>\205\177$\276L#\373=\201\354\220>\005\274/;n\'\342\275k5d\274\232a(>\002\242i\275\330\016\364=\004<,\275\315t\273\275WJ\362\274s\025%>\001\351\345\275\301\303\207\275i\271\313\272\0347\373=\005#\317\274(w\031<\017\3555\273\0057\365=3\266]=\331=+>\227\3357>\362\214Z\276Fkh\276\304\211&; \237\222\275n\306\221=\335\263\006\276,(\200=;1\275=q\271j=\3125w>\005\237\005\276>GI\276\236\310=>&/\243<\356\350\233=.\'\333\275]\275@\274\025\340W>X\325\231\275\256\331\242>\0104U\276(qK\274q \223>\317\331\371<\257\013\302<-[x\276\013)\307<\034\020\231=\023V\013=G\023\372=O\3475\275\020\206\t\275s\014&\275\365\260\326\274\034\333\003>4\306\310<\341\366/=Sof=D8\336\2753\207R=\360\313\306\275\317\346?\275\261\351\234=&\361V=d\250\032=\344\031~<\327\350\345=\'\024<<\344!W\275\260>\336=P\244\034<h\177\346=\026B/=?\265i=Z\277\362=\317T\004>s\\ >\036\034\342\274UD\257=\"\374u\274~\232@\276;_\304=5,\256\275\3044-= \006\327<\007+\324\274\212\r\021>fBH=\2677t\275\r\366,=(\027\006\276\232\265\317=\263\317U\275C\023\215=\017\336K\2730Ud\275\005\216\347<\2733\t\276\005\352\036=W,\253<B\345o=uB\334\275\266\317\200\275\201\354:\276\215\215U\275\030\362:=B\032t\274\004\t\257\275\271\272\275\275Y\211\021\275\017\242G=\266 (\276\264\2573\275\025\255\301\274?\222\202<\213q<\276\r\035\306=,\211\r=\361\244\001\275\356\3117\275[(\010\276\265\344\340=\331y >\224\250\342=\235\343\250=06 =\262\013J\276\177\247\236\275\274\246\017\276Z#\265=/\270\305<S\337%>^4K=In|\275\212\177\010\276\\iv=\026~\034>\006M)=\262\233\251\275\246\230\322\275\262\241W=\000,\270\2746/\254\273\325|&\276\346+_=\202\334\">\250\022:>\257(\362=\210\233\370\275\234%8\275\273\035\255\275\337[\017>\302B\'\275\320\210c\274d\254d\275\376\r\020=\022\214\354<\036\361F\275\255\231\226\275\323TD\276w\240\205\275\026^\324=M8_=\300\313\353\274\366s\034>\370fU>{.\023=y\342\261=yAI\275\347\352I\276Kf\035\276\254\267m>\226\275\023\275n\352\036\276Uyz;\253Q\177>\033\241\254\275\225s(=s(Z=\303\325*\276\215\262\021\276!{\013>\"\270*>ZQO=q@>>H\200z>N\255t=\0249\231\275Y\371\310=\000\024&<%%w\276R\215\r>\222\320\251\275E%\262=\220\352\211<\301me>~\260k=\215\035\001=\262\r\003\275Tn\035\275Y5\354=\261\200L>\270\304\026\2760a?>\024u\330=\321\010F>3\334\000=\0368\026\276\317\264\021>\264\337\007\275\310\271\034>\334\000\305>\302\2608=q9\363=\031#F>\344\n\030>m\312E>Y\236\372\275B\340\001=\212\032\207<E\377\302>4\236\223>~\031\t\276\251u.\274\234\205H=\347\363\025>\214\314\372<8\323\240\276\030\t\255\272k\013W=\033r\262>t\037D>\331\024_\276\340\342k>\347\2236>\201\035>\274\022)\006\276\014\242\251\276\242\354:>\266\027\320\275\'{\301>\233ey>\010\260\261<\360\241\215>\265T\265>\303\370\243=\266o\333\275\351\361K\276n@\030>\263L \276\353a\035>\3554\303=\327\310\321=\223\021;>r\302.>\343\227i>\217_\214<\004\327\243\276\006\031\226=V\250\023\276p\333\020>?SR>d^\240\275\342nO>\003k_>KD\032\275\207\215\207\275\006%K\276\253nw\275d\354D=\306\023\303=6x_>\345\233\263<\177{,>\275\213B>\342Z\223>FA\326=I\335\201\275\255\200\005>\235\224\020\275\234\026~\271\345\031\210=\006z\010>\330\203L>\327\355\n>D\366\026>sC\030\274\255i\202=l\212z=\004cj=\017\317G\275J\314/>\243*\220=\341\204Z>@0\030>\300\241\205=\362\254\n\2754\263\177\275\\\214\205\275p(6>\007Dy\276\304G\277<\036q\211<t\350R=U #>\013\273\001=,\271\n\275*d\301=\233\033\213<\247\364\207>7\037W\276\236~\365\275\230l\014>g\252\260<\312\253\340;\243\357s\276\271\037M\275\270\370m>zz\022\276\026I\205>\222d\224\275\"\2307\274S\210\200>\372\311\003=\266\240\006=@\262\243\275\367U\232=M/F>8+#\276\217I\245>\000p+\276\212lb\274\\q\304;\2611-\275\004\3051=b\267L\276\001F*=\312\006\324=V\t^\2751\274O>\013\003\031\276I\234O>+\360\265;\251@\253<\026\177g\272}\235c=\'\233)=\203U\312\275LuM\274Gwk>\271#\010>w\026\212=\336Y\351\274\351\366\274;\344\367\245\275\316\361\026\276`#z=\201\'G\275|\370\362=&\316\203=\350\026\005\276w\3468>\246\016\031=\316G\226=O\377\217\274\326\271\203=\271\347J\275\223\305/=\311\333\201=7\333Z=\347\361\373<\343\265\246=\3053\370=?\375Z\275\245\246\027\276\017{4\2755\321~=\360\333\016>8e,\276\350u\365<V\030\212<t\274\233\275\037d\253\275#k\">\360\3530=z0\276<\252\255\363\275\213\267h=\346\216\001=\316\230O\274=\312t\275\210<p=\301\215\341=\351|\205\275/\270/=%J\241:.cV=\365\"\020\276\230+g\274I\217\347\273\204:\241=N\251\032\275\310np\275\272\3548\275S\200\307\274\337\"e>?8\271;R\2271\275%\303\311\273\311\025\177=A\250\312<+\343\305=\355\325\215\274\363\264\356\275\352}\371\275T\273\201>\226\320\202=\274\\x\275\031\372\222=\033R\032\275~\267u=\223\307\215>\261\350]=J\032-\275\233#\310=\275}\210>h\342+>\260\317\022\276b\260R\274\265\n\373\275\'\355\234\275\360c>=\370\346\273\274(\317\225\274\210x\033\275\355\367r>\361\273J\275q\206b>gN-=j\215\005\276s\321\214\275G\323\003>\252\r9<[\236K=\327;\030>H\014\222>\364i1>e\276\376=\362\"\007\275\364>\265\275\273\004b\276\n\002\241=]\300\253\275\372\303\240=\000\350\314=i\311\233>D\344-=#|0>\235\356\031\275\267\"\016\276\272\026\026\276\372\272\274=j\0352\275\t\375T>\251\272\355=\364\343\216>\322\342 >M\301\202\276\204S\271<\tM1\275<\330+\276\341\030>>4\023m\274I:\250=\013P\207>\177E\370=\033\026\010>*\232\024\276\021\017\334<\376\360R\275\215\023\201\275\270\014\312=\255kh\276zJT>4\314\254>\360\261\342:l\303\323=\345J\230\276\324)\303\275\211\227\245=Te4>\305\305.=\263\344\254\276AoC>lp\332>\037`\372==\362\261=\rbd\276\033\206\322<\335\303\325\274+\211.>\201\001\030>\200{\275\276>fz>\267W\223>Bp\274=5 ,=\005\255\322\275\'Z\374\275\3366\246\2730\263\343>{t\377=\037$b\276b\362*>\237\366\311>8\330/\275% D>\333\323\326\276_Y\320\275T\322\327=\035|\300>\001\314\r>\017\222\363\275\232\312\230>S%\272>zs\032\276>r\223>\265W\340\2768\266G=n\202V<y\322T>P\033\017>^\313]\276\352\3301>Q\020\247>\022\374\262=\311\253\030>\311\335\345\276\034M\320<h?\026\276\235\331\207>b\006b>\301\032,\275\205\336\254>\024\315\351>u\347\001<\034\'\344=|\2419\276N\177\362\275X_0<1/\020>\322BU=\237~\213\276\2164\237>3\334\245>\016\217->[\213\037>\"\372Q\275\005+\272\275hz\224=\305\340\233=i\377Q>q\003\022\276\352\325\262>\034\372_>P_\351=\376\201\033=\261)\336\275X\226$\276%\302\023>\355\343\r\276\226\256?>:\366t\276\006\212S>A\277\265=\371\227\001>T\304&\275\002=B\276\037-E\276\374v\241>V>\203\275\036\'g>\366\322\304\274\3565\222>\3574\256=,\035\007>\024\241-\275k\177$\276\317l\365\275\250g\271=\323=\177\2762$}>\210X2>\265\301\022>\264\373\005>\300\234/\276Z\022\271\273\227\034V=\204\337\201\276\326\007\010>bk\331\276\335\272\035>D/O>\004\345\002>*\372\330\275 M\335\276;\375\326=+R\252>:n\004\276_\266\235>\3658L\276\024\333\230>t\227\035>2\242\271;\271Q\023\275}Sj\2768C\343\274\177\330v=\021\204\031\273\225\223\243>\252\027\316\275\251e4=!\2728;GM\034\276\024\3675\273>a\250\275[\236\317<yj\271\274\034\371\304=\030\227\216=?\355\261\275\366\313\210\275C\234X>y\222\213\275F\254\377\274\244f\t>\254s`\275~E9=hL\262;\236\256\351;\322If;\252\345\t>l\'\300=\277\2641\275\327\223\003>\370\021\025=#\350\255\274\302\251O\273\341\242D=\372\322\\=\321\177\234\275\2131\243<}m\351={\205\200\275H\276\314;\\;\255<M\264];\316\227\313\275\336\026\013\275\256@r\274\032\267\321\272yE\026=\031\256\021\276$\027\244\275\217\344x\2753\n <\305\360\235=Z\251\330\274$\216\365\275M\271\255=?\322\221=\004\317(>!\231_\275\272\301q=l\263]\275z}\017\274&\376$>\215\351\274\275q=!=\274\r4\276\235\315\257\274\244&\264<t\013\356<*\003\317<<\333==\026g\241=\317\255\237=\300x\233<<{\332=\231O\n\276\r\253R=\250-P\275\\\375\201\276Q\220==\275\031&\275\323\3437>\3700?\274p\025\261=\364Q&\275\032W\350\275\237X\264\275\010\033\212<IQ\257\275\031W\212;In\013>\256 Q>\332\3018>\002q(\276\354\031\032\275\374\270\224\274\260\n)\275\334\2306>\221\352\177\276\004\\A\275\332\370\214\275\000\220\200>\323I\007>\215\366Z=\r$\031>\306\333\215\276\233W\333\275\321\202\276=,W$\274\340\317\022>^\004\354=\234\255\250=Ou\022>i\365\215=\240\"\316=\216\177\033\2769_\215\276\372Fe>e\030@=\323\311\026>\032\355\366=?\340b>\234/w>1\203\204=\313\217\375=98\213\276\256\2415\275\326\256Z>f .>\362_\232>-mn>\273B\212>\250]w>\351\014:=\027\304\004>/\357\020\276\324l&\2763p\242>:`\300=\224:\210>\376\247\215>oLF>\331\234\r\273\210\267\214\276\323K\220=\003m\343\275\336a\346\274\\Rx=F\352\253\274*u\214>r\214\230>\310?\223>!\356\334=\307\001\240\275\330N:<\250\210\240<\246\261\336\272-\014\356=%\014\345\275\276\364\213>K\315\322>Ws*>\353\'B>#h\211\276\303\215\014>\222s\227=<\226\200=\300\350\330<+ga\276\000\333\\>\236\376Y>\235\370\037\275\350y\006>\342\204`\276\014b\310\273\002l*=\317}\274>\353\347\226=J1\323\276\277\361@>%;\326>\240\0226>X\002\356<\316\004\302\276b\231\354=i\265O\276\244o\327>#\002\221\273\236\214\247\276bR\005>\004\374\273>\222:_>\345\222X>\270~\261\276y\020R=\007\276\353<\264G\203>gD\312=\251\366]\276\352J\211>\322n\310>\343\3340=\'\020\243;{[\213\276\323\277-=dFG\276\205\215\315=\024ln>\003\3120\276\313=\274>\364\016+>\264\341K>\331\374\202;0\261\001=9\330\020\276\006j\033>\231-\330\275\320|\235>\236\214\211\276\030J\247>\347\332\313=\004\321->-.\306=\323$e\2763\262\245\276\240\217\357=\244\335{\275\324\325\207>\235\366\237\274[\004\204>\275\025\337=>M\307>\"\3610=F\017\032\2757-\037\275\022\257S>\351\313\347\275\237`\236>\214O\027\276\2748\214>u\030E<\235\270\212>\217\002G\275\276\317\357\275\257&\t\276\337Z\273\274h\341c\276\306\3760>w\302J\276\363 \277>\316\367\004<\2048\223=\010\325\033<b\307.\274\r\353\035\276\261\266\025>\202\\\233\276\334%3>r\360\334<t\003\304=\2031i=\030\014\241\275#\211\226;\271\345\375\274\262CG\275Q\317\025=\257w\246\276\t\310\302>\343\334\223=\032m\242>\371\266\244=\311\000\215\276\317\227\255<\0321P>\201g7\276\235\270\010>\220\204\272\275\357\261C>\360\207\364<\251\326m=\330_\217\273\207yy\276\024\357\031\276\314\025\375=>\352+\276\372\350Y>t\024\364\275Cu\222=\240zy\275\206N6=\365\025m=\221\317\220\2758]\235=\373c\320=\353\311\337\274\200\t+>.\036\213\274OU\202<N\316[\275/+3\276m\333\'>\031h\215\275\236\375\003=\376\014D=n\267\264;\027[0=\353\302\033>\202\243\351\275\022\243\213<ueK>\260\204\325\275q\032\201=\276,\342=$!a\275\373\024\025\273\202\311\025<as\341=\235\266\230;\353{\201\275\034\260\013>\022_H=/{\261=\217fu\274q\275\246=\243&\341=\005\017\202=\220Gc=\030\227\314=9|6\276o\216@>\325\032\224\275\010\303\374\275\355F\265={\251\325\274\331\0204>p6\177;\270\022\014\275\355\217\020\276X1\214\275x\247\020\275\036\222\356\272Sc\252\274;n\305\275>\345\034>e,>=\023\032%=[\026\367\2755\241\033\276\277\323\202\275\007\352@\275\205\t\010\276K\235\005>\231\351\355\274\274\302\030\275\247\001\326\275N\276\305\275\223\242\247\275\374\311\257\275}\266R\276\365\003\215\274:\254\215\275J#\220>\252_\270=\273\270\241=\301)\302=\343\300\277=\246\007\346\275\202\276\">\207\310{\274i\256\025>z\035\252\274\203\227t>\272#\005\274\201\377\375=\013a\017\275\346\262\371<\357eM\274\272\240\006<J\251v\275 \234\334=C\273\204\2752\271\032>K\271\257\273W\367\027=k\000\376\273\004\n$\276D\251 \276\332\240\265=\321z\036>\2626\310=\375\303D\275\230\030\236=F\207\275=\317@I>\033(\320=\"\243\005\276ja\313\274r\343\361\274r\361\270\274\253Cl>*\206\371=#\n\t\276\276\326p=\345W\366\274\244gf=\203j\322=\361A\337\275\312\022\212=1\224&>\353[\350>\206\206\323=\375\327E>I\027\363= \267\270<\210\360\000>\266#\034=\rx\327\275rs\344<X1X=\007\333\267>H]\244>&\260\263\274\223Q;<\251\347\275<:\316\177<\311;\235;\002\002\373\275\353\370`\276\3729f>_\341\235>L\034\274>N\316\225\275b\257\201\275\213\010!<_by=\030\315\034>\236\016C\276\235\220\221\275\230^\370<\252\276\270>\221_\307>\306\033==-\340\022\275<\002\247\274t1\024>\017\316\235=H\302\200=\270\354\241\275K\3567\276@\330q>\020\244N>}\326\277=\272A\215=G\362\350\275v]\250=\256O\205=\336.\344=\332\226|\274\230)\023\277\255\320q\276\251^\335>\207\006\223=\253\270E>\005aP\276\261\317o>\311K_\276\373\264\256>\271\003\327\275.F\005\2777\336p<(L\034>FJ\267>\365\033V;\310\222\345\276\217\273~\274\310\303\n\274\210\255\311=y\177\306\275[\010\212\276h\357N\275\253J\021>:\246\334>\351\032\215\275$\177\256=\316\353k\276M\033\020=N\026\275=\002\';=M\307\030\276?\020\n>\210 \324=lZ\355>\313\2266>\233L\010=^\364[\276\301\307\013\276\246\341\365\275\323:.>$H\206\276;\256\236>u\026\246\275\330\252\353=\314:\307\274;p\374=mb\223\276}O\251\275J\310B=\346\225\344=\232]]\276MBk>\2509\017=5=E>\316O\363\274\034\314\033>A\201\300\276\323\304\211\275\316\0337\275\252\204\321>\2637\336\275\225\270\313=\'K\216\275\007t\243=U\336\212=F\010\r>Y\371b\276\367\255w<DjZ\276\034\006\235>\363X\032\275\261\253#>\254\340\t=m\260\236\274\361\245\212<\035mC\275c\262\326\275\033\032P=\324\314\241\276\373\026\235>&\306#\276\377}\276>\300\335\215=\367\241\360\275KNK\276\325\326\341=\271\357\367\275V\372\357;Xz\201\276\216\243\315>E=\332=\"\027\303=\327\240*>c\261;\276\221\225\200\276\300\031\033>\332\300<\276v\037\010>\257FJ\276\356y\233>i)\236<$\367\023>o\311\321=\211\223\261\276\202\311P\276\220\262\367=\343\320T=-\016Q>f\311\333\275\346\220\201>\337c\342=G\300\013\274\256\031\031>\204\223Z\276\324=\264\275\026\323D\274\023\'`\275\324\032\314=]:u\275\255\353\021<\"\267:=\206\351\255=\301+\346=\351\363#\275T4o\275h\326\331=t\372\256\275\256\256\366<uS\335=\316/\240=8~\351=\001\256\267<^I\311=K& >C\365\353=h\0268\275Th\346<\"\270M=i\353\273\273{SK\276}\273\010>v\200\205<\031\222\300=>\037\"=\242\303D=\007\300\344<\330Z\267=\020\035\274=\230m!\276d^\223\273\331\003\373<o\256$\276\207\020\003\275M\231\006\276|\017S<I\356i=\036\371#\275#\"1=H\206\274=C\304\013>\317J\256\275\"\006\006\275\222\273\200=J\330\006>\351\367J>\216\013\303\275\2448\347=\226\034@=\004tQ\274\324P\344=\222\177@\276\016\261\261\275\313\r\301=\335\216\001>\225\020\033\275\313g\365<\335?#;\3106\004\275\271\367\277\275\213\022\232\275\320\306\243\275\'\006.>_\260\302\275\341\263\355=\210\025l\273n\350\2218V$\030\274$\000\025\276\273\005N\275\211\026\366\275&\266\324\275:9\264=\237V\264\274d\177\373=\033\006k=\216\306H>\367QI>\235?\374\275i*M\276)4r>\223\316+\276\303\264+>\267Z\031\2767X\251\275wS\021>A^\335=v\221U>\023\321\364\274\217\t\354\275\350\004R\275\272)\030=\341\310J>\203\372\345=zI\335\276\017\323\260=\242K\203=i,]>\225TC>@{\265\273]\360\'=\2504\031>&>\242>\016\361\303\273$\313^\276\2535O>\233\367\023>\016jx>\230\014%>6\366[\276\372\377P\275\"\226\216>\004\236\222>\347\360\266=\335\2154\276/\224$>F\004L>0\301&>\034jF>>I\264\275?\231\374\275\357\205b>[\236\213>-r(=`\257\200\276\'\014z>!2\201>(\302I>\311\2134>\241\2529\276\230\325\034\275\324\244\325=\026\252\374>\\R\222>\316\361\036\2774!t>\354\207\221>>\032\203\275\035w\217>\212Z\343\274\016\331\205\275\256\326\255\274\365j\230>\206\330\000>\364#\264\2763<U>m\205\261>\2602\007\276\264\317L>CiV\276\366\352m<\350\273\267\276s^\221>\366\r5=\031\345\307\276.\025\327=\020{\">\000O\003\274\204%Z=}\031\200>x\370\366\273]\0310\277\362\234\031\276&\023\026>\013\340\354<\263\353\336=#L[\276\240r\363=\"u!>JH\004<\220\266\001\276\332Y\352\276\211\364z\276`\321V\275\337\205\214>7T\020>\244\253D\276F\364(\276\266^\377=\013\345{\275\237\0266\275=\265\316\276\237\371\267=\316m\210=\232\254\016?\232Bo>g\227\343=\321\227\307\275!%\035=4F\360=[j\252=h\005\257\276\303\323\233=\350\177\317\275X4\270>;\226c=6\235L>\310\272m\276\315\032\241<k\265\246=~k\\=\227\245\211\276E\255\212>\254 \226\275\222\227W>\303\300\330\275\230IB>eUQ\276\255c\206\275\342#\026=\322\321\234=\302\225\026\276\205\032\">\230j\202\275\3761>>~S\223=\220\377\223=\303u\014\276Sn\247\275\034\324f\275#\010E>!\222\241\276\254\030#>\252\304\371\2749\227<>\017i\333<\n\306\356=\035PW\276\331\031\212\276\322\273\250<o\276H>\177?\034\276\027\261\314>\201\"\276<A\0102\274\277 \245=Q\200\305\274\252(p\275\372E\210\276\373\310j\273r\323M>\227^=\275G^\232>\366/_=n\370\035\276/\362\302\274\005\355\324=\322\313\r\276\220\\Y\276%z\t\276\024Q\260>\350j\214=\337\223M>\367\372\014>2\370\240\275\030\271$\276\010C\237=\205`\006\276\304\003v\274\032?\202\275\350<\303=^}\203\274`\260\005=\262\023\207=\221\2356\276\303\3677\276\035.x=\333\021\246=\2037p=\341Q\033\275\033\014\233>\303\204\010>\341\010}=\206\333\335<\004}\353=on\025\276\027\272*\276\345K_=Mo\305\273:?\236\273^\307\013>>\0046\274\216\270\271=\374\3713>\214!\017\276fz\320<\320Q1>\343\263\327\274\221**>\243\235\353=\262\2169\272R\030\002\275s\363\260\275\275\003L>\252h\276=\373\377f=~\267\007=\223\343\275=\377\237Z=\227t\230\273\020\225T=Eh\264\275\211\343d=\200u\247\274\271BG\276n!d\273\301t4\275\346^*<\211u\016\276\330G\244\273\223\\\336\274\313\304\321\272\025\377F=\002\251\237\275\005b\025=\203\306\226=P\021\301\275\272\356\366=\204\027\354<*\277\243<\247\223\'>\"\307\023>\371\264\371<\323\251\341\275\234\253\022\276\304\203\260<j\035\325=?\2624\275:w\271=\344\267\330\274\025g\247=\205|%\276}\\\243=\222B\235\274\014\241\017>\231t\177\275\025\251\260\274\\\032\205=\022\016\371\274\277\226\212\275\364\312\271<\252\355S\275\357\337\n<\303\353\205=\021*\333\274\220d\374=x\233\002=R\374\266\275\024\006\2129\021o\223\275\032\265\223\2747\0161=\032\031\346<\261\000\004=H\205\r\276\305\344$>\354\025\242\275b\2336\275(Kc=\326\3673\276#\210\324\275\232\010\200=\330d\261>\3673<\275^\365\010\277\024o\374=\003\3401>\360\237\365=\227\303\313\274Q\007\302\275\000\342\203=\360J\356=\031J\376>/t\361\275\t\312\016\277v\231\265>\303\202g>~\230=\275^\247\247\275\025!\213\275\256\342*\276=\240\013>\314d\371>\272\221+\275\257K\033\277\342X:>\332\374\362=d\027\314\275\365]D>E\252\205\275\240\233\272\274?\214\030>f\333\371>\247\314>\275\321\341#\277PFI>\002\010\315>\342Y$=GG\200>C\"A\276\361\256B=\215\367\366<G\007\177>\031\014\034>\335\271\r\277\221\263\231>\254\256E>\226\022\221\274\350\013\200>\330\316R\274\204\202:=\251\254R=\320c\237>5\354\313\275Q4\010\277\320%\274>y\003\327>,I=\276\016\032\030>o\220k\276%\304p>\270\214\023\275\355q\204\275H\227\001\275[\375\373\276\213\261\027>;\242\312>\304\300y\276*\227\t>OA,\276\r\205\241>\373 \341\276\303\255\324\275\210F\260\275($\026\277g:\234=3\246y>\223\215w\275\275\014\270=\252\237\300=n\r\212=\2020]\277t\034@>\230\316\361\276\334\214\242\276\3679\001>b\2355\273\036\222`=\004k\366>\370\021\273=\274 \021\276\225d\001\277qz\\\276\266\321\002\277S\362C>\272\241\256>\305#\222\275u\331\037=\002\252\243>\310\307\233\275Q\r\224\274\025\347\002\276\004d\014\276\247\312\225\276\257\006\266>\313&\207>To\236=p\224\201\276\2354\234=MP[=\274\346\n=)#\311\276O\340\027=YQ\270\276\256\323(>\237\273\212>\216V\243\274\026\t\246\276\341\245\367\274\305\341%>I\367\013=\247\375\365\276\241\346!>\357\204i\276o\331=>\244\274M>\351~\373<\200\254\207\276!ab\276\210\207(>\215\257q=7\307\237\276\220\225\253=\r\007K=X\370\225=,A\307=\020\346\034=\342k\210\275\n\232\226\276\031;\200=g\251N\275\262Ru\276\031\325\305>2bJ\276\310Y\233;\227\325\t\275D\231\220\274\231\325\200=)\305\333\276<8\241=\266\214{\276\273\035\223\276\242@\247>;H\\\275\364%\006<\016\250v\274\366q\334\274\027\035\337<8\237\275\276\023\361\325=Z\010\017\276\236\266\274\275\375\007\362>\035\315\273\275\021\316\034\276\377_\241\275H\034\001\275z!\200>E\355\246\276\036EC>)&(>v!\322<u\345\202>d\235\001=\226aI\276\005q-\276-\204R>\003\322\027>9\216\216\276\213y\303=u\222\303\275\377\272\204\274\260\324\255=\004\350\003=\216c\220\275S\270\027\276\357a:>\037i\203=\035<2\276\243\033\013\276|\322i<F\273X<\337MN=\302\212\204\275%\037\273<\215C/\276\341\240U\275\001\034\264\275qA3>\215\270X\275\332\n\234<\357\204#\274\006\353\263\275\363\0130\275\030\313\230\274\002,.>ki\017>~d!\274u\305\317=a%\200=\333v\021\276\350J\t=8\271\345<nn\316=\367\034\367=A\243\336\275\242\n\255\274~`\346=@\360^=\371\262\317=\334\341s\274\257\274\242\275\200XS\275^\276\343<=~\376\275\276i~=\031\177\177=s\257\321=\263N\331\274\'\\\337\272\225\'I=JDb=@i\305<M\225\345\275\245s*>\203\305\010\276\323\2346>\312\242\267<\245!\251\275\303O\314=\241\220$>\262\363\330\274\342O\241<\230\306\326\275\3153\246=\026r\363=6\310\265\275\305\361\332=c\263\365\275Y\201\264\275\237\261\321=\237\224b\276#hj=\354\r\304\275\232l7>\305\250;>\303\342\000\276\303\016r\273:\324\264\275`\323\"\276W\353\234\275\003\345F\276\236\264\014\274o\221\017\2742\342\216\275I\246\006\274\331\307\231=D\343]\275GL6\275\021\310\316=N\377\025=R\245\023\276/\206\010>\316\2244\276R\266\230\276\277\367z>\307@\216=}\321l\275\366z\334=\367\262&=9\244\374\274\033\255h\275\312(\232>\0330\314=\226\366\001\277n\343\300>\331\270\215>G\254P\276\217\242b\274\326P8\276@\345\034<\000\"\377=\026!\267>\302\241\351\274\013p!\277\226\343\244>\017\255=>X\231%\276\312%\213=n:\013=\032e\206<\314\216^>\255\\\303=\246\303\312:\274&\004\2774\265\250>\006\275\220>\004\034C\276pz->]\220\361<\020\272\004>,m\r>\371\361\376=\330\262\275\275\311i\330\276v\366\336>x\251\362=n\222\006\276V\310I>3\271\t\275\356\304\037>\033\035A>\334\260\n=6Dm\275\222\237P\276\376n\014>\211\256\242>J\\r\276\344\203\344\273\037b\024\275F`\256>\027L\236>\0315\203\275<i\"\276bex\276\006\377S>\014\271\375>\353.\342\276iN|=\357\330\361\275\255g\314>\202\250\016>&_\004\276\370]?\276\375\270\001\277\324\"\225\2752D\350>\242\317\235\276\257\204t>h\267\325=\262m\330>\362+\025\276\2221-=\310\037\351\276\370\247\'\2770r\260\275\013\253\334=O\350\271=(\020\301>f\231y>\313\224\254>\025\270\243\276)5Q\274,\240\374\276\030\017\272\2762\321\224>\257LZ\276j&\211>\342\322 ?\022\351\226=\255\216\215; \204\n\276\336\241\022\276\341\227\021\277\207\207\026>\240\032\343>D$6\275j\327F\274\'\217\266>F\352\214\273\021\336\t\276\253\373\036\275\246\325f\276l&\016\277]@\017>\200\357\016?>a\032\275m\321\203\275\240\311\305=\026\026\r>\177j\017\276b)\223\276\321\031\311=\026ud\276|]\037\275Bc\211>\010k\007>\302\227\323\275 -\306\2752\314X>\216\326U\275\213%F\276\206\212\255\274,\245\036\276\313\334\224\275\035\211y>\3368\220\275\303\335U\2754f\037\276\216\276\246>\261%j\275\306Y\177\275\214\010\211>x\243/\276K^\271\274\250 \336=\031\373\224\275\375J\336\275\355\316^\276/\221\232>\275\316H\276\221\271-\276\212\225\227>\335\2111\276<\251\021=\216\025+<\2226W\276\370\033:>VZ\375\275\362\2205>\367\\\205\276\323\002w=\311J\364=\251\356\321\274\341/\206\276A\222\327;\227\367\214\275(\214\177>\266\250n\276\253\234\001>NZ\260\276\020O\003>i\314[>\345\374\352\274\373X\340\275\256`\240=\201\2231>b\376\205>?\307`\276\342\303\322=F\013M\276Ds\354\275\033r{>\274N\006>e\276\235\276O\340\003\2763}\344=\215y&>\324\354+\276\327\251\206\275v\002\211=\316\265o=\304\252\022>\361\307\013=\357\345c\275^\303@=\247\212\375=F?\003>\367C\253\275\345zS\2759\t\242\275\362\323\250<q\033\327=W\355\004=g\\\324=\375\236\324;\325\304\320\275\021\302\273\275W\243)>\323ma\275\233\320\366\2754\263,\275\214@\273\275{\367\265\275\234gt=\022\332,=\005\202\335=\363\235\017\276\360_\316=\264\357\355=\272\267\311=?\023\216\274\2667\024>Q)(>\201\263\270\275\3216\274=\3313\257\273u\312\341=T\002\220\275\340\035l9\236yV;kE\230=4\272\032=\331\270\026\275t\353\364\275A\'\225=b\363 \276\350^\t=\254\357j\275C\022P\275y\335\354\274#b\241=\234\3675\276\345\301\205\272\362M\222=O\010W\275*\032\3259Mj\t\276\022\003\220\275\206\253t;qr\035>J\320\372\275\326\344\016>\205\312\t\275F\235\233=\324\223\203=^\0254\276|\272\302<\362\336r\275\032K\r>\224<\014\276G\341\244=\33229\271M\321&\275}Nb\273\271\333x<\360\t9\275\003\305\342\275S\236y<\325N]=\036\307 \276Y\245V<\344\316\024>V\003i\275E\236\025\276\007p\221<\242\303\304<\320\177\314<\347v@=\240\376?=\370\216\014=m\375L>\316\375\304\275\004\016\023>\360\274\377\276\000\377\177>\373_\313=\035\361u\276\023yC=\374P\271;X\231 \276H5\353=\250)d=\034[#\276G\027-\277Z\235\204>\301}\267=\230\251\250\276\236L\004=\241\305\277<\n<\025=\257\223\344=S\371\222=\221\026\013\276\245\2351\277\267(y>P \275>J\002\214\2768>\311=\034\330\001\276j\270\234=\345\317\036>\252\274i\275\312\345=\275\226[\002\277\030$[>Ly\237>0^\326\276\224{E=\210\201V>\326q\206>\252\225\025>M\355\333\275%d?\274\006\352\262\276=1\235>\210R\200>C\\\351\275\215\"\310<L\037\376=o\217k>D\252\341>\216W\331\275\000M\363\275\205ay\276V\326\237=(\210;>5\246\254\276~\345\311=\200\365\014=\217=i>\270\275\007?f\275$\276\':.\275\231\214\375\2757\301\230=p\323\321>\375\327\316\275\033|\004>j&\037=\r\336\312>\276W\t?p?$\276\257(0\276\013$@\276\001\331-\276\316<N>\310p4\276\3129\377=\321\216\333>\017\027\204>D\n\224=\002\226@\275\035\302\271\276\036\305\202\276\177\316\214\275\372\351\022\276X\300\024>\"\n\207>\r|\203>k\224\222=\366\267\010\276rk\r\276\260W\274\276\231\253<\276\373x\271>\201\260\252\276\235`K>\362Y-?\231\016\237>\334k\010\276\226\254\232\275<\343;\274\265\233\370\276\270\306\321\275\017\256\312>\2137\002\276\241J\020\275\017\367u>\224\2141>\225F\241=K\325\036\275\252S&\275#\345o\276>\304\273\273~\306\023?\271\227\024\275\301\010\355\274\234\013\031=\315\255\356=\270\020\014<\330\332\201<\037\343\010\276\243\314\013\276\374H\274;_\177\211>\020=\300\274\263\377u\276\314pd\275\331<\021=(\000:\275\307n\336=\014F\016>v\020O\275ML\344\275\310\346\252> \211\t\276\356\'\242\273\272X\\\276\213\216\t>\342^X\275o!}>\\\270\002>x\035B\276\343\364\231\275\277\027+>\273\200N\275?{\316;r[\003=\303\233\207>\377/\261\275\324i%>O\223\320=w\246\"\276\022\205\237\276\274\356w>b\356\222\275{\021W\275x\207\220\276Y\027\021>\222K\r\276\377\237]>\317\222o=h\005\301\275\2661[\276c\332\r>\372\265\201\274\330\016\007>\022\223\005\276\336\332[\275\216\252\263\276\214\300[\274\337@J=mO\342=Q\325\226\276\212:\216=\230\374\214>A\213\002>\261\037\241\276\376\r\365\275\t\362\021\276\014(\r=n\021\215\274\221\276\265\274\3776\230\276\211\013]\275\202\267\271>&u\206=\223 B\276\3461\240<WW\356\275\317\344R>\377\206#\275_]\326;y\312a\276T\212\331\275\3617\022>qQ\243\272\245\205\216\275\211\201\r\2758\232\261=5\037\342\275\335\303\274=\324\014\273:\364\270\302=9\275\006>\367g\n\276\250\"\353<a\277\014=0L\202=j\004\002\275\251\305\303<\210E\'\274\270\316r\2751:\230\274\255\351\024\275\362\036\213\274\250\007\272=u@\205=\316\260\254\275\002`\037=\247\n\361<\000\321:=\305\236\266=\244\273o\275\363\322\210<\335m\311<\305\234,>b\263o\275\222\343j\275\305\350D\276\264\322\213=\334\032\"\275\374\037\353=bz\031\276\034\356\244=Jp\223<\255p\242\274\2063\204=\305\314\252\275\237\360\010\276-2\237\275*\231(\275S\272\374=P!(>yV\272\274!s4\274\315SF\275?T~=\316=`=\252g%=\346X`\275\204\317\372<\2067\010=\014\031\t\276eK\315\274\016\326~=x\240\031\275\000+\351<\306\2147\276\023n)=1O\342=,\355c\274\346\300\373\275\320\330\035\272@$\370=:\2060=\263\254}<\301\020\223=\303/&\276\'\247\251<\207Y\251<\315\317a=@\253-\276\\\344\'\276\206\031\270=q\210\264\275zev\275\265\351\351\274\214T\365=\346\274a\275A\217->n\343\376\275\3669 \275\365`c\276\325W\220<*K\033>/\000\247\276^1\031\276c\202o=V\373\355\275\357\230?>\223e\261\275\363\253\347\274\303\032\003\277^%\242>\nW\273=\2244&\276\305\026\350\275\353-[>\243\322\363\2745\250y>\223\200f\276\337c\034>E\273\225\276\010[\t=\345\006\210>\254G\200\276\230\267\362<\007\211\217\274\334\003P\276\261\342r>\341\323\237\276\026d\306\275\032\013p\275\014\"\345\275\263-b>=\023\227\276In5=w\320\010\274\371\336\201\274\326\225\223>\336<\346\274\322\214\030>\352e =h\255\346\274F\017;>\264\314\375\275O\023?>\027bH>Pz\323\274\304g\024?\353\277\355\274\313\375F\273\224\316\267\275\303\306\013\276B\207\250>4C\222\276\347*\323\274A<*>9\000\317=\001\201\"?\026\240k\273\036@+\276\232*!=#j\000\276A+\323=\"\033\310=\225Z\231=M\317d=\026\310\204>\3319\004?\206j\342\275<\024\222\2766\271p\274EU\217\276\234v/\275\'\276\226=\227\324w>\230P\217>\257\202\341=\323\245\225=\035p\014>-\033\322\276\241\361\215<!w?=\270o%\276\032\220\307>\000Z\325>\260\0008>\351d\025>\245\003c\275\226\316X\275.\032\230\276f\210\022>7\323\005=\213\334@\276\367Y\301>\213\247\002?4\211\343=\003BV\275\236\362\t\276\257\321I\276W\343\222\276\002\365\232=\037\250\336>]G\252\275A\255\006>\271\351\255>\210fg>\303\267\341\275x\022H\272\331\222\010=\372qP\276_eB\275\341\232\351>I/Q\275\227\024@>&\351\375\275\n\206@>\026z \275\022\375\226>\352\377\020>\237\315\217\276\226r$\275_\351\217>\212i\234\273\363\205E\276\325\320\023\276\007\201\263\275\034\307\254\275\036;p=(D\206<t\312\267\275{/\237<\337\006\241>\371\202\302\275\366\324\376\275x\010\207\276\034\211D\275\277\314\325\275&UX>\240\226@\275j\r\214\275(I\276\274\324t\272>\000\217b\276zD\265\275\031J0\276V6\216\275\2631w\275|\364\232=\256\364\355:\001\016\264<\t\340\022\276m\235\327=}\375\235<\024^\243\275\023\330\235\275\276\253\317\275\2053\307\275\265\352\335\273\350\026\331\275\227\236\362=1\246\021\276q\200X>GY\325=\232\223\200\2758\374!\276\270N+\276\177\024B\275\024\231&=\373?\353<\366\254O>\303\006\335\275\315]\321=Y>\272>n\271I=*t\302\275O\300?=\307\343\242\275\255\340{\274\227s\204\276\347\357\003>\375\001\037\276X\250&\275\231\314\233>(N\000=\352%[\276[%\234\273\365+\345\275|\270\254=\013\216\306:\205\362x=d/\020\276x\250\016\276U\200\307=j\036H<:\3752<\247\362=\275\231*\037> _\t>\266\203$\273\037\021$\275\0252\216<\267\254H<b\315\317\275G^\253<\212\267\327\275Y\335\022\275\217\r\271\274\271\205\274=\006\263\314=\n\026\253;\302e\256=\344\333\356\275\001\377\\\275\r\013Q=\007\177-=t\243v\273\346\316\020\276#-\005=\246\032\230\275\302\240>\276\2307\303\275C\346\373\274\222\000\310\275\343l\357\275\340\013q\274Q\'\245\274`\357`\273PSz\274\377R\312\274XL\271\275\237\0259\2750\323e=@\247\013>\034%\352\275v\250q\275\\\223\340\275\371\370\025>\340\203j<\016\"6>\006\301\177\275\351\265k\274\tK\312=\276\346O=\322\353^:\346+\233\275\203\342->\ry\373=\255\337\242;\327\251!>\202\210\305=\215~H\276Y=\363<\310W|\275&\225O\275\221\343I\275d7\274\273\301R\315=\361 a\2753\275\t\276\353\236\351\275\216\022\343<\004_\023\275\236/\250\274\221o\033\276\217\246*=\344\271\031\273\205g\023\276\005\017\370<\021\372\376<\232\026l\273\336\3755\276\317\177\020\276\2326O\276d\273\010\276\252\244\250\275\360s\314=M}/\274\362\350\r>p}\356=\030\353\033>\321(\344\275\2654\244<\271\324\005>[\213v\276\257\313\035\276S.~=\375\245\020\276\262\244\233>\307\373\314\275S\2640>\270\305:\276Pd\376\275\234\016,>7\353x\276\240{\206\276R\002@>|\262\276\276\222\201\265>\304+\200\275\332\315\016=\346\311\377\274\311\225\037\276!\255.=\2136\304\275\026\200H\276I\r\200>\373\022\364\275\271\361\304>\353\246\214\275\221&\314=\027\214`\274\230Il\276\247q\202>B\3743\276E:|\276\260\240G>u<\244=\311 \376>\200\314]\276\345aZ>P\276\355\274\242\325T\275J\273\026>\205\013\217\275<\302\271\271\203\025/>\'A\367<}`\306>`\315\231;\0013\032=\006\360=\274\222\264x\276\2208+>\342\376\003>\315d\330=\260\307\377<\230n]=\216B\306>m<\350\275\240I\006\276C\341\243\274,o\026\276\216r\320=\330,b<\305\312\225=\364\271\037>\014\2205>\277y\313>;\275\250\273\026@\260\276\250Bc\271\255\357O\276;\245\341\275g>\033>D\263J>\324\2541>$\203\\>-\024@>\035\360\350\275\203\177\305\276\250<h>]\360\313<fM\246\276\217,\313>kA\326>>D\213\275\344\320L=\345`a=\316+[\276X,\324\276\007\024\321= b\212>k\222R\276\314K\376>\372\323\014?\316\2637>H>\007\276|\200\004>m\343\223\273Uk\244\276\344\341\210>e\303\216>\325A\305\275\257\357\020>\253\341\325=GO\301=\006\\O\276\365\342r>&\363,=\004\307\177\276Yl\336=\310V\244>I\361\323\274\325A\010\276\202\275\206=?\207\027>f\207\016\276j\263\327=\300~`=t\2104\276O\367\332\274\315)\213>\023\261\007\276A\234\253\276\014\216\224\276\274k\027\276C`\217\276s\377\320=O\300\273\275\035\375\243\275,\271\240;]\333\313>\204zQ\274\264\251\225\276k0\002\276\276\206>\276R-2\276\t\237\242\273q\300\203\276\213\365\016>~E\221=\311\361\\>I\277k>\311\351(\276\372\003\r\276:Gf\276wM\232\2754\320D\274X\002?\276\\FL>\220\253\030>\254i\035>\216U\">Y\361\200\276\242Ne\276\020\'C\274\365\255P\2752>\276\275\217B\365\275\273\204\241<U\365\023>j\352\261=\0170\243>\310\013&\276;\010-\276\217b\353\275|\205\021=H\366$\271uV`\276[l\202>\023\036\300=\225\021G>we\273>\322\236\330\275n\024m\276`\210y\275\302\t\200\275sN\007>B\244\357\275$\371\340=\255\247\330=8\220:>E\332\313>U\016\303\275\021Qn\276\371\231Z=\n\320\000:7\336P<\363c\023\276\036%~>\0246\363=\256A\026\276]\310+=\003\033\352<\006K\005\276\373\020\005>\301\205.\274h\272P>\225\261\317=\371\307\366\273\020\246b>Y\037&\276hM\014\275\201^\352=-\347d\275\344w@>\371\245\255\273:.\222\275\\a\035>\324\340\204=\276\260\'>\227\330\014\275\026\211\010=\274\201\310;\301\222\265<t\221\007\276\215\001\317<\354\202,\275V\341\322<\334\243\017\276N\302:>\345\335\332\2750C\304<\032\203x\275.\037\036\276/\220w<5\"&>R\2658>#\033\327\275 \236\273;\333\260[=+\2110=6\257=\276K\361\320\275\\`\335<\".\031\275\'=\026\275l\355L\276\336\351:\273\337\r\266\274h\206\274\275\004\313\245\275\325\333W=\355Y\232<\371\215,\276lC\242\275\243\001\237\274\034\024\324=\353\312\315<\003\371\307=\354\014\n\276[\362\313\275>\265`\274\344\337\306\275Q\221\366=9\207\216<X\261\323=3?\210\275\372\265g\275\001\252\267<\323\003\303=DS\366\274YOE=\300,\267\275\004\n\307\275\207%\257<\337K\014\276\215\215\326=*\'\200<k\"\340<\341K\206=/\016\344\274\242\352\372\2750\330\216\274E\342\222=\225\210\217=\322\266\306\275\021^\\\275j]\004>\244sZ>\030\263\243=\301\016\037\276(g\t>\033\345[\276\027n\227\275\\\035\007>\017E\252\276\300@\234>\355i\027\276\r\216\313\2740+\200=\215\024\360\275\340\311\310=\310j|\276b0\253\276\244\263\026=\267\3726\276\227\031\243>\n\220\027=\367\353@\275\316c\353=1\361)\276\207\354&>\211\214!\276\302\036\206\276\271\241\306=,I\271\276U\370\320>@\363\217>\234f\234\276\221\355\223<\323~\307\274\271\363\215<\226\205f\276\323-I\276A\212\350;H%\267\276\007\340\242>G\234\025>\024\215\231\275\004\261\007\276\246r\177\275\253-\320<`\363\322\274A\253\312\275u\333 =\231\306\\\276G<\255>\242\356\271=\220\340\345\274s\225\213\276\001i\231\275\306=A=p_\217>\345q6\275g\016\261>\313\223\332\275\260\321\225>\016j\263<=\232\351\274\231M\035\276\240\251\n\276\363%\234\275\353$F>e,\005>\036\333\032\275IB\n>\313,M=I\273\307=\231uX\276\273e\254=w\010\t>\326\322k\275\'DU>\\\335\275=\354\206\361<\244#!\275{\201]>2\307\023\275\013\255\303\276\254\023\256>\240\031\027\275\227t\323\275\241\215\177>zf\324>\352x\007\276\255\273\337\275|\004\204>\337q\370\275_\353\016\277\360\362s>\016\311\326>\000n)\276\275\201\205>$\226\300>\371\006\261\275 5\215\276\330<\354>^\010\254=cz\207\276\367\273\302<\274\302\235>d\334\251\273yD\261=\351 @\276\215\317\367\275\237\030\200\276\312\313\027>TN1>\023)q\276\244{a=\366\026\210>\250\211\014\276O\275}\276K\007\274\275x \207\274\'h\230=\226\304C>P\"9>\270d\342\275\221\212\027>\270\334q>\213Z\032\276J\nG\276\367\016G\276\304\357\n>\312\221\371=\264\2614>a\247\r\276\214\366K\274~\253_=\345u\001>n,\022>~6j\275$\240\252\276\374\005\006\275\353PW>\366(\003\275U\260%\276\205\226k\275\007\345I>\007\351\005>Eg\014>#\3604\276\020\"W\276\264\245\227\275\204\343-=\024\010a\275mXk\276\020\230N=y\"\360=#\264E>e.L>`6\237\275\354\301\222\276\320s\327\275,\323@>\266K >\001\346M\2764~,=l\204\204>\301\376\223<\n\031b>\250)\202\275\244\236\306\275\223\223G\276\263?\334=Q\270\013\275A\360\233\276K8u<\027\227\206=\372\245Z=\002H\"=FG\024\276\346\r\251;\305\344\020=(9f;\363\0310=@\361\236\275\210z\334\274o\337\335=\213\223\373\274\205\317#>\232\224\323\273\301E\'\276w\001\230\274f\365\253\274\023\253\302=OV\300\274,\376\031<\232\201\006>A\004\376\275Z]3=\020\254\035>@7\215\274{\021\272=\353x\030>+\353\000\276@Lg\275\020\300\234\274\304\355R>\224\2278\276\214\237@=\222]\235<\005K\n\275U\317%>X\335\243\274\367t\225\274\2062\374\275j\374\260:\323\3549>\321\201\243<\t\352B=\335n\341<q\031\210<\221l\020\276\013\206\377\275K\213\373;\361\201P>3\235\344\274\034&p\271\2451\353\275]\350\033\275\035\356\336<\371\300\232\274G\370\231<M\374\014\276\343\001\262=~0\003<\232\324\330\275zs\330=#y\004>\"\325C<\022\005\305<cl\215\275\030\343\251\2741!\273=\033#\030>\316\327\360\275:\270\330=\335\002\022\276=\361\333<\324\236\376=\256,\221\275\002W\024=\001\001@\276\226\206\271<\371\210\032\273\014qS\276i\367Z\275\254f\374\275\356VC>\342\\0\275\370\330\035\276\205\300=\276\241^\274=a\340%>\254.\345\275\371\364.\276\270k\373<\263\321\001=s\014\342\275\336\270\014=:\023 \274\013\350-\275U\010\014=\201p\001\275\2064\27699\364#\276X\362\223=i\226N>\t\205\214\2766\262\006\276?\022 \276\214g\243=#\263,=\211pv\275X\032\374\274\340\214C=9\005_=t\227n>\253\247\275\276\342\013\225\275\347\324\006\276?\362\276\275\362\257\321=\245\241G=yf\214>\232\376O=\335\267q>L?\272>\356\036\322\275(.\324=\363=\375\274\322\2448\276\343-\235=\267iy\276\315\363L>\337D\323=\206&\274\275\244\232\223=\235)v\276q\334P>\342]\254\275\357\311K\276\027h\026>\304\312\023\277\272\353\241>\354\330\324>e\245\200\276g\t\357=7Du=e\005\353=\223\270G>@\376N\276\321\271\321=i&\016\277\314\376\276>o\344Z>\324\271\036\276\224\177\362\274\263x\034\276xw\006\275.\032\325=\023\177\303\276\t,\235>\266\374\033\277\211\377\227>Q!\022>`vN\275g\314\003\275\346\372S\276n\376Q=0\370\216>\216\375\367\275\264%\200>\365\254\342\276\205\326\233>\234\202h>\353\253\020\276/\357K=\326\231\302\275\222:I\273\322-\206>\002\252\t\276}\nS=\345\016\217\276\200\333\276>~k7>\001D\377\276\314.\000=\314\305\010>\276\355\360\275\201\323\265>LF-\272i\233\312\274\031\211\363\276\356\213^>|\035W=,\321\014\277\037,\200>\204H\364=\007\336\"\276\036dL>@*S>\304Z}\276h\234\000\277\264X\240>\204\246K\276\336\315\251\276\344\223c>\272\"\226>_}\343\274\003\3348>\224k\204>\342O\344\272\254\274\362\275_T\205>\276>\213=\373\311\207\276\347\262\024>M\373\035>\315\213\304\274\342\016I\275_\013\347\274\256\325\003\273\365\031\250=\256\n\221>\272S\006\275\363\312\242\274\327\331A=\005i,=679=\202\276\230\275\352H^\276\305\372\000=\312;\222<\035\353\333=\374\376]\276\002\365E>%i\373=0\354\341=\t\0203=\262[G\276\210\355\235\276@\251\273=\224F\301=\3110C>ttb\2764N\353=\241M\017>\374\342\274\275!d\371=]0+\276\215sF\276S\037\302;0<9>\273\007\002\276\227\216\273\275\027\006\245>N\022\336=\246*|<r\002l>\212\235\024=c\361G\275=\250\014>\242z\035;\316x\210=x\351\204\274\377\316\023=\233\354\001=\371H\233\274M\2640>\374\225\225\275\256\025\304\275\360s\332=\344x\177>!\337\245=\324\360X\276\265\331\250=\3374\267=\030\347/<\036\232\023>?x\n=\302\212\010\276=\030\224=\372\377Z>\\\316\245=\007\244*\275J\177\353;\207\340`>9\214\014\276\224\037\240=\235\300\212=x!8\276\242\001\251\274y\217Y>)I\353\275\357\304\220\274\026\205\372\275D}g>\344B\t\276\302\253\311=\201/h\274C\347$=\340\374\'=`\017\217;\235\267\204=o\027$=\3703\202\275\261\363#>\317\277H<\026\221b=b\240;>\253\245%<\363d,\274\235\212\014\276\024\320\305\274\3012\n\276c\3163>\026\314~=N\200\017\276\340s\366\274j\327O>\226\315\263\275\272\212\367\274\221&\276\275\303\245\321\273BQ\003>0Q\233=-\271\302=k\251M\276$\375\224\275M\204\005>V\317\241=\261\244\337=\255\345-\275\021l\343\275\006\023\007=R\361\024>\233\333\235=\261\364\002\276\347\232G\2750\231\272\275\010\363\036\276\270~#\275tW\351;\245\261\243=L\341\332=\036\300n=3\320r;\222K\243\275B\271\327\274\335\334K>\330g\273\272\016\006\306\275\345e\201\275\225\010\234=Y!\200=\322\227\256\274\002\2127=\307\037\207\274\007 \356=\205\177\215\275Ilv\275\024\327\370=#\307\212=\372\311,=|\010\206\275\306I\316<TUo=\234!?\275\256L\032\276\'\257\236\275\266\017L=\340\024r=,\231\201>\177\305\033<N\275(\275\210\215\333\275\000n\232\275\010\036\033\274\312C\312\275\301Z\'<(\006(=\ty\000<n\031\226=\2214\345\273\314\215\217=5\256\210\275g4\261> \344\020\276}l\345<\225\2559=\212\335\275\27557\224=\235\3048=\213\036O>\227\274\016\275\230aH> \262\227>X\177\211\276\323HZ\275#\005\363\274g\234\270\275L\320Q=\265\261\016>i~\246=p\'o\275|\036\215>\270\356\263=\355\2705\276\241\354\363=|)v\275\030\373]\276\021_\r>\010^\324\274\343\321\240>\303\3526<\005G\205\275Jrl=C\334\036\276\232&\334\275\274N\362=gm2\275\264\377\352=0\365\027\276\252y\254>Z?\r>\353\274\205\276v\254T<\234\210J\276E\262\212=!\240\202>\326to\274\231A(>:q\267\276\373aj>\223\031\341>\007`n\276f\226\340\275`\235 \276\006\010\323\274\030\247\235>\313V\233\276-\266\227=o\332\032\277\327>c>\240p\315>\335\350\275\275~\331Z\276\255\202\227\275\0068z=D\252\320>$g\035\276\274\304\257<\233\234\366\276v\273y>\352\231\245>\307\275\212\276\221;\231\275\027\237Z=q\2678=\2013\314>|V\375\275o\276\344\274\010@3\277\243\360\001?\t}\214>\330\270\226\276Mb\360=\274\021\265\275\342\306L\273\001,\373>L\\\220:}\221+\275\362\250\371\2766\2525>\347e\r\274\247\023\232\276\003F\275>\246\270\014>OAP\276\356{\312>\257\327\007>%\223`\276h\334\301\276\234\315d>\211.T=J\225\305\275\214\265O>H\242\005\275\361~\354\275*!\030>\3020\202>\310\244\035>\252$\003\276\343j\032>6!\327\275G3\014\275\271\362\305=\222\334\222=\345\001\t\276\206=k=\';\031\276\004e9>Hj >\336\207C>\353\307m\276\371B\343<Dx\323=\234k\020\275\323\3159<\217U\357\274\366[\362\275\177o2>\020@V>\215\025\212=\231f\234\276$\360J>\026\031\022>\203\303%\276\235?r=0\024$>\021]\001\276[\275\236=\353P\374=\370{\233\274\271\3368\276p\227\324=.Q\236\275\262\322N=\032\034I>a\2131>M\250\363\275\212\2548>\220-G>\206\351\250=\330\241\323\275\375\216K>\226\344\240=\203\2579=\234P\323=G\006\000>\2019\207\275\357\314\221=\372\252e>\020\204\237;\306C\022\276\006\3114>VV\257=G\3148\276\274\216\206< \236\337=\025\0253<\024?[\275\212,\236>\014}\206\274jv\345\275\212\252\233\275/\214\350=\236bW\276t\021\325<\321\026+;\r\371\211\275\275\271\334=\267\371\243>(\024\207\275\222\310\310\275\217\311\\>\215\302\213>j\004\234\276\237g\325\275!\341\302=\032\\s\273\365\365L;n\343=\275\213\236 >YO\225\275\263\352\222;f\322a>V@*\276R\352\322\275\323\374a>\251}\003\276Q\251n:\272\341\006\276\217\201\254=F>\251\275X\335G>\021\220\260>H\363y\276\260%T\274E\261\241>\203\267\243\275\014r\323=\233\241Y\275z\354\277=\021{1\276\021\207\036\274\215\370\343=\271\005\234=\013\336\002>\207\031\243=\340\377\250\274\203\265*\276E\247M=t0\006<\353\230;\274\231\221\016:4\233X>\026\226)\275\344\334\200<\003\345\301=(\305\027>\034T\361\275{\341\271<\177\027\323;\245\0043\276\337\357G>\003\016:>\034\217+\275\004\336\010>g\213\352\275\025<\254=R\350\302\275b\013\362\275v\214\315\274\306\213X=\363\201)\275\271\237\331\274\017\233\367\275\333\"\022\276\005M\345=\376>\203=\225g\243<+\363\351\275&\004@\274\037\371\014>\002;\032>\020\316\r\276\000\305\001\275%\257\024\276\244\021\217==\2170>\265@\363=\216@\265=\300\251\241=\330\254\206=*\210+\276\272W\206=\335\375\024>\030\315b\274\327\335\267=V6\r\276!\343\224<\021\217>>H9P\276\243gH\276\022\021&\276p\002\224=08\333\275]\240\215\275\n\030\230=\207;l\273\2708\t>V\311\241>Hi<\275\344\355\212\275\234j\037>\316h\242>\2574\242\276\313rK=\022\023)\275\310v\243=\005\2376=-r\207>X\355\250<(\2563\274F\355\004>\020\"\271=\326\236\024\276\377p\236\274\310\2702>\312\006R\276Z\302\020>\316\324\346>\343\024\300=\323E\203=]\226K>\272\t}>&\366\214\276\370\316r=\245/\026=\344\306\235=i\377\375=\220MH>\326\241\330=\r~\027\275X\321#=\231\276\030>\020\371\255\276\251\177#<\201\356Z>h1Y\274?1\274=\373)\300=\376\222\255\274E\0327>\347\203@>\301\204\241\272XA+\276\010\203@=\2001\210>\354\227\001>\346\313\314\275\314C\210\275T\253\241\2753\371\014\275#\257\230=\3232\256<}\305H\276\354\260\327=c\257\273>\333<\357\272\314\203\017>\206)$\276f$H>\237\216\237=\354\273\206>\344P\342=:\277\255\276\3655\004>z\210\373>\020\216\240\275\254\025\222=\332>\"\276{\370\235>E\234F\276.\243\314=Hl1\275\203\320\255\276\0302\243=j\204\333>\036\252#\276\266ZZ\276v\022\201\276\331Q\217>\352w\241<\264nb>2e\223=\354\332w\276\006Q\227>\\9\013?=K\242\275\203J\017\276\262\0203\276\022,\030>*F\027\275\026\206*>\356w\343=\350\270\355;\341D\262<\357\323\241>\305\374,>\234W\370\275#\326{\275\022\372\017>\243>\210\276\332:|>\307T6<\202\320\256\275P\274\234;\253\242A>\220\240I<\033\354\253=kO\021>\367\367\031>\242G8\2761\270\214>\024\034\357;\333\335\331=t\245\275=\032t8>\3253j\274Rf\017>\270U\025=\001\203i>~\210\277\275a\200N>\224\017I\275\274\357\016<\\j]=8\242\242>\347\253{\2758\026q>\255\252\221>\345M\035=\177\351h\275\nE\333=\306M\277=\305\312\255=\261|+>\213\210\n>5\265.=\343\020w>Nq\252>\226\322\266\274Wgo\276t\227\323=3\222\255=\321\272\322\274\241nP>\250f\214=\277\3100\276\271S}>\350\327P>x\324J\273\025\0225\275\327\201\277=\306O\021=\016\331\257\275t3\267\274\326\211\003>\025\036\373\275}\363\201>U\357\017>o\213\014>U)#\276\037\r\323=8G\036\276\035\313\026\275\266T\270<\351\344\201>\177d\366\275\311co>\272|\277>@\325\224<KrZ\276 ~[\275\260G \274\205\0322\276(\372\022\275\002\255H>\236\010T\276\006\254\250\275\330Y\024>o\245\216<>\002&=;\372&>\021\335\026>(,\212\276\315&\337\2746\013H>\352\0054\275\032\313\236=\340\3263=\251rk=\235i\322\275\2762a=\274X\010>\357\242\024\276-c\017\275B\374\346\274\243C8\276rf\036\276L\345\010\276F\332\010\275\303\221\242=Y\240v>BI\244>\023\271\240\275z2)\274\317\273\244<\036wj\276\316\251\335=\372\375\223\275\343\235\203=\347\005\326\273\301\037\264=\305\032.>\337\215R\274\332\201\246=\264\016\233=\024\032\017:\255\356<\273}\020\236\275\212:\360\275\376\356%\276\332\252z\275\027\027\231\273\365\337\357\275\000\213\211=\237\032)\275\227a\257\275N\311\n\276\033\211a\274|\301\235<\264#i\275\237\2205>\343\3009>ko9\276\363\246\322<VV\000\275\201\316G\276\342\253\210\275\312On=\"|\345=\255\257S\275\376\252\216\2747\027\353\275\353\364/<\37776\276\033N\020>\026\242\267\274E\310A>su\213<\276\270\177=\330\\\360=\240\266b\2746\343\341\275\217z?\276\017\310d;\206l\006\276\257`\201=w\215\010;\021\227a\272\210z\251=\013H\020\275#\\\314<\007L\317\275\350\006\226:\201\014\367<\314\365\020\276\352\211\342<\034\362\031>v\017\240=\375\203\314\275_P\031\276\354\236\001\275FT\331=p\203\025\275\303\316$\276\341\311\231\275\302\302\336\275\330\356\354=\244\303e>\205\266\331\275EX\'\276\304\250\364=9\345,>-*\361\275P-\304\275\327c\306<\220M>\276k\366a=\255\312\304>\220\243\014\276:\006\025\276\203/x>i\"\207>\317\333Z\276C\352f\276\202\030\017\276\355\241\024\275\301\214\227\275\252m\004>\004j\322\274\036\262\204;_Z:>\"\376)>)\037\215\276\233\026c\273\310|7>\361\227F>b\266\262\275n\305\300>\004\\#>\214i\264\275\200i\203=\364\337\017>/\207\221\276O\035\275<K\234u>\277\303\261=D\n\007=M\335\236>]\247\311\274<\352\220<f\361j>\310\314\305=.\366\247\276\300\377\033=\334nb>\373.\t>\354\037\244=\203\022\227>\177\254\352\2755<\342\275\243GZ>%\206\266=\234\000H\276a\216\217>\235\027\265>l\373e>\305\035o\275\302\003\231>\002\030\206=\334\346\"\276\002\ny>\204\005#\276\214^\257\276\255oe>f*\212>\250=k>\211\351c\276\005\311\005>\237;\224>\221\272p\276\0310\341>\360\224\324\275\346f\220\276\177\003#>|\007~>\271t\204=\234\rq\276\316!\000>- \345=\337\001\366\275\347\027\245>i\250\004\276\246h\270\275J\250\274>\266\263\220>^g\362=\377\375.\275\035;\027\2750 2>k\260\\\276\260S\333>\264\374\000\276\343\346M=\261\035{>\r\251\225>\336\250\270=\024\241@=\257F\016\276Z\240u=\265sV\276\033\035\226>\3431\000\276\301\3448>mH\233=\031\216\213>\007\016\366=\261\021\217=\014`\256<\361w`>\342\330t\276\020\224\022>\027\274\307=\204#\352=C\363\263=\305Y\240>\t\211\r=2\\{=%\030\032\274\302\025\256=\353/q\2764\023[>n<\330;\205:7={\036\215=cK\205>Z\336\246=\001\316U>z\267\016>LV\310=:\032R\276\003\032\227=G*\215\275\\[\310<\001L0=ku\n>\232\023L>)5\227=\363\221\030>i\304\343\273\234\014\222\275\366\340\035\274#\312&>3\363\234\275\275@9<\311\355\225=9\025\256=\347\213\315=\305\"k>-L\014>\021\306\"\276Jd\224=\013\364\304;&\206&\276\373\256\246\274,F\272>\336\201\007\276\226e\354=\025c\210>\246P*>\353n\004\276\316q!>4\336\001>\020\034+\276\024\r\020>,\264\244=P\343X=\234\020\333\273R\3627>:\353c\273\275\321\360<?\235\024>l\304\324=^b)\276/w\355\275\000\304\">\245\350\005\275b\242\376=`\215\371=\277\323\225=\301Q\220:lY\312=\365F\214>\301\264\201\276\354\305\257\274d\231Q\273\217\264\341\275|\023\320\273@\240\212<\203\230\024= z\243\275[\242\001>\016\314\320=[6\024\276\342\336\023\276\343-3=\272\271\313\274m\327:>\315\200\317<\0038\001<\306\nN>\270\207Z>\376\312G=\313S\303\275\034\366\361\275\030\341\263<\316\362\377<m$\265\274\034A0=\004\305,\275\007\374\366=\216b\351<p\322\240=\324\276\254=\\\272O\275\236s\216=J\347\250<U\206\327\275`\257\271\274\227\220\260\274\337:-\275\264\3154\275\0130\025:\251\006;=\275[\270=\342\303\233\274I\312\227\2745\366\232=\274\003\004>\222\261\032\276\230L\206\275\362\272\274=\236\340\230\275\221\200\332\275\005[\363:\004}<>\256\211\323\274\037\362{\275\014\212\350\275\201q\245\275\365\034\304=\003p\363<\007m\331\275cG\276\275\n\327\316=\255\263\227\275\335o`\27589\203\274*\227\341\275\301\3456<\267\024_\275\246%\013>u\200C\273\033ZE=\355\235\331;\343\264\\;,\314\334\275\254\020\026\276\221\023\203\273\205\215\035\274j\336\266\275\303\020\020\276\026\216\220=\217\264\236=\362\021\367\273bFr=+\246\333=L[\342=w%\004>\267H\013=3\343\262\274\200\375Q<\354<\324<\346s\325\275uX\021\274\355\316U\275\014?\004\276\013\357~=\031\206\'>P\215\332\273\277\014B\2762\000\271\274\'t%>\374O\233\275De+\275\302~\304\274\3719\000=\331\363\215>/\036\032=\351\344\013\276\271\206[\2764W\363=\274\206Q>\326\310\252\276Q\345\365\275\202\332\r\275\220N\242\275\264\177\322=\342\022\311>\317w\n\2760n7=\034\245o=\370\267_>\325;Y\276\274lE\275\361\207\263>\351A\373<\376\216\222\275\266t\246>\221\017^\275.\253\243<r^\272<\2420\027=N#\237\275\377.;\275\347\027$><9\010>\033\372\025\275Z\226]>\220\232\216\275\377\204\020\275}\224\t=\370\374f=\226.\024\276V\"\"\276\232\220\203>\204\362\307=\007\300\033=X\221\363=\341\037c>&p\227\275\326\337\\>\251\264\232=p\216\207=\241\3659=\216\231\256>\367NH>\263\026\235<\360\217\210<\340\017\024\275\273\025\262\275\210\266\271> N\354=}`\251\2753\354=>r%\247>\357%\241=9\242\277\275Y\214\207\275p\202G>\323K\317<U;:>\3773\254<\034H>\276\020\234\311>\3167\321=Mc==\320\220^\274}\201R\274CDm>\032\323(\276\300\351\204>\003E\312\27549\353=\006\0078>\331\023S>\036\'\036\276\244\207\250\274\276$C>\303\033N=\2306\354\274\376\335H>-\344\211\275\306\265->\374\357r>\300\026p>\313!D\276}\331\306<\235\224J<&\366`>\333R\260\275\267\305\007>\206Z\327\274\2311\005>\344\311^>\346 \251>\263:M\275\366\237\270\275\346\2367\276\345\026\037>F%\037\276\374[\342=\310R\257<\347\306X\274\343m\372=LmH>l+\207=\352=\334=\224\301\234<S\313\260=\020\" \276\234k\352=\316eQ=\356h0\274.=\030>\360\254d>RZ\341=\013\254\247\273h\246\346\275|\3744>s:\205\276H\302\244\2755s7>\335\262\307\2752Q\326=\032M~>\336\344\000>\314)#=\021F\022>Y4u>\034\377L\276Q\255+\275Za&\275J\377\301\274\304S\245=\246\323e>\2725\004<\3554w>\035s\222>\337H4>\313-C\274\242\335\307=\024YC>\235\320\244\275\231\336\342\274*Ww=|\356\325\275\365\027E>\310\332E>\025\251\207>O\016\005>\301\203\300=\275\366k\274\311&H=<DF\275\254\361O<%\253~\275\261\371m<\341\253.>uI\031>WWh=\001;\330=\222=\271\275b\314a\275r\230\000\276f\010\320=\346t\324\274\267\354X\275\362\307\343=\271&\020=\236B&=\233\243\311<\347\014\347=\265\274\326\275\377F9\276\346\325m>;\345\363\273/|\224=\034^6\275\260\221S=r\016\251=\342\004\013\2762\\\355=\363\211\334\275\'\t\032\2751\364_=8\353\324\273:s =1\367A\275\222~H=\346Z-\275\346]\332=M\177\036>#\231\220=\223\256\004\276m\212\020=fw\031<\302\350\202\275NP\177=\210z\317<\276\022l\274FB\337\275\321yR>$3@\276\016\217$\276\320\255\231=\310k\265=\013~4>\",?>V\3474\275\327\220\211=\025\004\370<\315\216\265\275\341\350s<\265\277\004\276\224\302\363\275\302\245\323=}v\347=W\n\024\2762\010\347=k\010\227\275\207\214\315=\251\221\307<)\327\223\275\230v\024\275\323@y\275_u\211\275\026\373\325\273\300\004\256=\254\233\005\276\366;\245\275o\3534\276\017\003!>\034\255\027\276\014r\024\275\343\336\305=\276*~=\243Z2\276\205\000\275=O\310\005=\275k\232\275Z\335\200; z\257\275\203\027[\275\254`(=)\205\345=\362\"\005\276\236>\020\275\320\263\320=Tc\264=2\326\264=|[\031<7\326\341=\353)1=U\333\264=Y\352\225\274\370\375\221\275mg\253=\340U\346=\212\030\203=UO\207\274\266\370\"=:\322>>\335\301\026\276{\362\243=x\376\035\275\274\261\237\275\3733:>\335\356\276\275\273\001\016\276\207\231I\276^\324B=i\306#>\321\2535\276t\260\264=\312\272\026=\20247>\340\344\222<S\230\336<6\3623\276\274k\362\275>\203\347\275\213]\350=,\313d\276\036\220\023=\306!\000>\207T!>\013A\003\275\263\350\360=!Z\260\276%\340\"\276\024\2350<\343\245\220>-!}\276\272\345\317\274\304\246\244<\344\200\000>\233e\327\275f\317\026>H#\225\275\207{\037>\252\236\326=!Z\206>Fr\177\276\016\356\277\273]3C>p\014\262=\270>\003\275\364cl;\200\324\341\275\007\366\301=\232f$>\021\313j>\307U\237;\230i\014>\333\274y=B\0210\275\251\'\274=\331\2111>\231\226\017>\255a\006>(\342n>\335\020\004>l\244\002\2760{m=\006.\026\276\025\222\010>\374@\343<\321\376\251=\006\002\\=\366\302\316=\270\000\032>\321&o=\034\351\313\272b\336\222\275\313}\023>F8\321=T\245\026>\366\211\324=\265X\251=\342\301\201=\375Q\227>\272\320\206=\333\312\330\275\333\010\252\274\2725\314<P\r\350<h\200\300=\375\nl>\343\020\n>p\245w>\311 %>\332\013(\276\355Xu\275\347\301\341=k\205\004>\306C*\276:B\357\275\"{\013>\201\234+>\237\271\375=la.>Q\255\t\276\017\307L=\014\023\203>\316\0252>\230\323};\021\030\214\275\264\357x>G\231\355<\315?\204>\350\355\357=Q\375!=\244\307\200<1S\027>\230\313\202>\010\300\233=Bp\236\275\032\"G></\326=\340\025\031>X\310,=\232\356\201\275\362#\342=j\r}>U\242\022>\270>\026>\320\235\252\275\222\272\333=/\360\226=\265\217\261\275\000\370/=\036\267H\274c\260\342=\336\251a>:\335H=\'\204:>x~\323\2747\215$>X?\354\275\233\212\254\275\214\351P=Y\367\222=j&W\276\013\356#>\031\230T>LKN>/\\\235\275\261\np=\366\2027><3\270\274\273\001\007>\247\367\013>\234\231\370\275K\261+>B\326\270=.\306d>\234\000\361\275\0009\020>\367\3748>\345z%\276q\324\035\276\025\220\237=F^s\276\243\321\267\275\303\251\255;FH\202\275\270XG\275\372\233\300<j.\237>\320NE\274\376q]=\331\303\332=\000Y\300\275\333\357\t=l\234\213\275\331\353M\275[c]=p\362\207=\277\263w>\261\234\302=\243\370m\2758\270\t\275\2221\"\275}SV\275\002y[>\007D*\276\354?\033>\0374C\275\024\216\020\275\311?;;\t\331-<<4\206>\233$\004\276\355*\002\276\204*h=\0243\247\275g\257\366=\207.\261\275v\330\255=\211>\267\275\273D\204\274D\252\271\274\211Bf\274\360J\320\275<\t\n<\371%\320=|\330u<\225*\366\275\275(K\274b\310\205=\253\2608>\241\016\317\275\234X\226=\315\363\001<@U!\276\242$\277\275\207\342\257\275C\016\004>>\204#=C^O=\233\2408\273\363\346\233\275es\275\275\323S#>\202\350f\274>\327C=N\034w\274\346A\022>g4\023\275\366\324\362\275\321\223\000\274i\376B\276\0226\023\275\022B\337=B\356\034=a\325\375\274O\354\313\275\024j\237\275\312\341\315\273\265!<\276\207\201\222<;\334\025\2736\300C>\325\347\\=X%\036\276\'m\344\275\260Jx\274\005\344\\\274\007\340\021\274[GN\275\263k\344\272[OQ\274\270UE=\004a-\276\263\273\253<\235;n\275W\2409\275\260\236\364= D\005\274j5\277<\2476n\274/R\305\274`+\221<J\212\023\2760\022^=\303\r\007>_\243\274\274Pm\203\274\362\273A\274\226)\021\275\215t\266<8\002\320\275\217\365_=\365(\002>?N\034\276j\360\357=k\271\311\275X\250\320<\330\301\363=\263#p<\0220\342\275\0230\222;\020,=;\253\270\002<\374\320\017>\350\242%=8\260\023=\323\270*>z!\236\275v\177x\276\214E\225<n\374\002\274\257y\220=\030\024\003\276-`\244\274_H\324=I0\237\275\2713\215<\024\215\034\274\236\202\365\275{\024E>\263\233{=\t\331\315;\0040\027\276\264!7\276{\2106>\220`\213<Xq\005>\243\226c\276\350v\224\276\340\nu<\250\220W>\354\014\326<\333\364\200\2742#\213<\rR\304=\024\222\340\275\001\243\002>\252t\216\276v\315\335\275<\362\221=\364\303g>\021\276\">\320\250\224\275\367\210>\276i\217\275=e\0352>\206k\266=\023T8\276\315\n\022>N\026$>\376\347I=\313\232K\275\021x\262<\353\006(\275\003\205\026>\022\2761=\345\273\024>\246\317,\276\225\036\032=\366\320\016>\355q\001>\016\336h\274\332\234\243\274\313\2114=18\001>\177\255\355=\240s\210>o7\021\276\377WU>\274D\031>\253\344\343=\363d\037\276\351\204z=\342F\216\275\301`\002\275\212\220\272\275\026\016\223>\314\331\230\274)p\261>\304\244\233\275\374X\035<\267\0071\276\300\303\251=\210\270\362\275\327\320\002>#L[\274\025jj>\023%\022\276\373K\266>Xts=\220\037\304=\034\240\026\275\261\253A\275\027\327\037=\365\210\200\275\362\305V\276\262\261\241>\313\355\034=T\027\265>\366f3<_,\366\275/y\362\274Q\243K>\304\010\345=\324\341\265<\202\332\322\275\022c\255>W2\342\273\337\014i>!3\322<\010\004b=\2332\202>\303Gr>\243M\340<\\e*><\360\202\276\t\257\017>O\220\245=\224 \341=\326[\366\275(\252\307\274S\221\272\274.~\221>p\177\372=\232\020\240<\236\336`\276\250\036\215>\260\3135\272\021W >\343\251\332<\374\332\337=\210\257\232\273\327<\300=4?\336<E$O>.?G\276\302\030\n>\226\022\223\274 M\232=7\373\370\275}\000\250\274\267\225_\275\366\225J>42J>@\310\223>\250\243.\276\312rK>n\310K\273\276\004\003>\271\234\354\275J\234\001=I\"R\273OgN:\034d =\264A>>\365\330!=\016\002\233<\r\220O>\301\032\240=\341\001\366\274S1\235=\374\320\371;\301>\345<\016o$>X\005\333=\031V\010>\202(\032=f\"x>m\r~<\236\213U=\356\315\310\275\014\251\003\276P\264A\276\202<\240\274R\354:=4r\010>e\260\324\275\362\310K>\n?/>\0029\261<2;\030>h\352\210\274\201g\212\275\320*G=\320\366\205=\306\376\034>\034\241O\275\225T\267=r\376\237<\270\213,\275\236L\232<o\002\272\275\342\203\227\275`\345\320=\313e\255\275\341\261|\275\235Cj<A\366O\274\2766\257=|#\022=$\362\315\274\227W\274\275{p\017\276\032=\204=%R\025\275\007x\241=A\034\n>\237Y\205\272\260T\302=Q\313\033\276\007\342\277\274\370\037\006\276\243\000s=_@\024>\177t\340\275@\314*;\020\335\300=\025\307\341;|\035|=\245\342\346<\023O==@%\006\2766\310\263\2742\t&=Lc\342\274\031sH\275r+\017>\021\253\237=\206\233\376<\323\0019\276s\\\240=\260\r\365\274\300k\031={u\210=\2021;=\212r\316<$\020\r<\232\256\331<\270\325\317=}\277\006=]\013`=\212\371X;\216\331\226<\367\223\006=\217\273\"=\252\234\023\276\354rH<\320G\351=(Kx=\257\036\004\275\363\234\205=\023\310\221=\335{\334=\266\3116<\263\324\350\274\377b=>\254;);\007U\r<\223p\320;\327\353\311\274\005\265\376=H(\034;\373o\001<\010!\021\275\223Q.<\270\033\260\273N\220\247<\315L#\276mR \2758\360\311\275\337\014\010\275\374\322/<l\034Z\275\t\003/>7[%\272\035-_\275\312\217\262\274<\270\271=\037\'\212<\237eE>\016%2\2763\3355=tP\262<\031y3\276h\253\021=\325\226J\275\356 \034\275qU?\276\254\326\376\275\005w\310\274<\232\t>\376Q\276=\337\024W\274\223Eb=\321W\320\275\026\216\\=\356\005T=055\275$;\230\276\361Yy=W\004[>B\312\"\274\352g\256=\215\332A\276\363\315E>\315\260\216\275\351\006\214=l\2722\276\267_h\276\335\214\342;r_\212=\342\331\332=\\\017\253\275\3752+\276r\235\032\275\215\341\006>C\324\r=+E\240\276@=\027\276\357o\256=/s\363=\333\257~>p\243%\275\024<\205\276\033\341\306\275\235}\003\275\260\nB>\014E\273\275j\227\204\275\000H\250<\\\205\374<\213\205\245=\216\265\242\275+\021\036\275\024\277\240<\333\'\035\274\367\003C>\231\326\030\276\346q\201=AY\301\274P@\207\274R\207\267=\336b#\275\246\034]\276\243\010\n>\225\004\007>\016\276\234>\332%C\276\330\332\215=\246\266\237=\361,\266=\347\030\304;Y\207o\275g8\034\276u\373\241\275\276\357\272\275\010G\243>\222l\372\275\2417\034>\317\"\">\032\310p=\002mQ>\320^\213\274\273W\334\275\373\311\013\275\226$\204\275\nv\221>\220\223\007\275\360wX=\025G\221<\353\342\322=\234\326\375<\250d\226<\316\247(\275[=3\273s\330\346\275\253/\203>\3640\332\273\236SY=\306\330R\273.\014\213>\367\tb=\254\261\002=%v/\276/\363\007>\314\324?\276U\341t>\035\276\253<\366\233\003==Fc\275F#H>^\202\\=}\261\235\275B\210H=\201\026\366\275\236\340>\276\322\316\340>\007g\347\275\255Q\202=\255\375\262<u\221\017\275\335\006p=D\004\277=\330\003\320=_\377\224\275\311{\r\276\002T\207>\260;\212\274\351\352e=a/\211\275\324\240\215\275n\317\305=9N\302<5<\003>\377\356\177=f\316\005\276.\301m>9\304\331;\226\262y>2\305\246=$)\031\276\265\231\023>\250\223\016=2\374x\275o\365\252=3~%;\t\230l=GI\307=\024\354\317<TR\251\275\235\226\215\276\003\247<=\274\355\301\273aM\373=k\230\003>\275\240\232\274S\201Z=\247<\234=A\237\232=\214$\246\275\025xj\276\332\020\370=1\032\377\275\200z\344<t\234 =&\307\304=\357\320\200\274\272\332\244=\024\350H=\241\264\337\275\261\3649\276\367d\224=\375p\327\275Ll\240<\267\347\276=%\204\212>!\313\243=\310\237$\276\303?(=E9\314<\000/\335\275\262\257\006>\337\224\227\275\004\371[\275\311\205e\275\350LR>\032\034\250\275\303)\321\274\371\032\034\276K\375\323\275Er\234\274\342\244L=\263\031\227\275?\360\301\275\313\2705\276\216P\364<0\264-=\331\255^\275\316D\364\274\316\035k\274\343\003a\275\005\375T\275\327\220h\276\270\210i\274\220\226\200\275\207v\277=\257\234\362<T\031\242=\347\201\253\273\224\375\345=\350X\313<\341\363\325<\0008\013>3X\017>\204\025\020=\343\350-\275\233G\341\274\327\310\010<\366\3242\275\035\343\002>\322\254\262\274\0363\003>@u\264<\306\341l\275\016\313\250=\230\341)=\030\261k<\017I\247\274\242U\261<\320\336\211=J\270\205=\035\306\234=G_$\274\346\273\374\275\377\036\024<\022\361\234\275\225i\315\274v\273A\275\346-\245\275\373\367\215\274\3726\242\275\243\254\202<\017\3378\276S\334\220=\273N\030\276F<\t\274\215  \274}\312\034\276\356\037H<h\224\242=\315p]=\233\260!>5\247\342=|\2756<\225\332\321\274\230\347\247\275\0337\321=\034\037\201\274\351\325\014=\353\3038=7\273B\273*#0=L\006\310<g\364\002\276\024T\310\275;9/\276s\271\233\275\017C\274\273T`f=\026\217F\275r\301\213\275\240N\357\274\344\322\256\275\002\354 \274\371\252\250\275/\005d=\007\3058=\301t\306=\'\214\312;\323\361\'=\347\254S\274\361\007\200<x\335\003>\263\363\310\275\002oL>\317.D=z\362.>h\315R=;\'\371\274\027,k=\206\210\200\275\250\031\027>@{F>/\256s=T(\240\274\303I/=\343\177\250\275}\231\031\275\233\257_=U\246D>\356\212\205\275\333~F>\021G\247<\370\272P\275\353\376\325\274\302o\244\275]\017\007>N\203\017\274\035rF\275\306?\037\276z1\242=\325\2003>\353\356\254=\023\256\003;\346\0301\276+\320]\274\2566\222=\215%=\275|xL\276(\331\217\2758s\242=\374\300N>\031\364\014\274\256SY\276d\027\025\275\362\345\217\275\010)\231<\336\000\245\275\367(\254\274\2479\335=\265\217\017>}U\270>\312\364P\276iC\252\276\376\266*\276\316\032\242\275\253\366\210=\257N\215\276\325\217t=h\310+;\230\346\020\2754L\360=\227xq\275\205dD\276u\330S\276\341\242\024=_\'(>x\013)\276\002\355\317\275\202\002\021>\030\273$>\203\223\225>7\213/\276p\260\370\275;\372\017\275\303P\357\275\317\241\301>%$_\276b\251\212\275\253\024\007<\330\233\021=\3307j>\334\323\207\275f\005\r\274\206\037}\275\266\250\200=\346\\\013>\223p\230\276y6\216=\353\004\t>T\225@>\031Tz>\332\216\213\276\'z)\276Y\322\202=\247\027\307\274\220\263O>CLK\276G\230\220=J\246\351=\375\002P=#\364\365=<5#\276\356}A\275\306\203\225\275\330]\307=\364\310\212=\253\"\313\275\237\n\336=\332\317!>\322|\207=\347k\202>\020\330\323\275\350\r\034\276\232\341\316:\370\227\034\276\244\366}>\010;\202\276\217\270\267=\n\236\013<`\226\377={\373\216>\217H\010\276\221e\300<\341XV=F\313\016>\331\014\304=\006\3641\276X\361\026>\022)\025>\244\000z\275\305\343\001>\202#1\276!\216\202\275u\372\372=\271\2355>9?\261\275\030Eh\276\360\251\216>\327\371R>\260r\024\275\243\3439>\302\343\005\273\007\347\\=Q\232i\274Q\001 >\366\221\243\275\224x}\276\3744\244<\230\206b=J\200\360\275\376\027U>&\215\373\2754\327\005\276q\021\037\276\217z\371=\201\210\025=\377vt\276\307\353\256\274\013\243\254=0\366P\276\315\226\300=f\270W\275\003\301\276<V3\374\275\020\230\203=\353\007\022\276=R\370\275\264\200\232>\214\304\376=.\312b\276*\210T>\235=K\276\'~\245<\332\021\204=\305\031\374=\223\3134\276\240\353i\276\253s\261=\'x5\276\014\217\r\276E|;=\022\226\207\275P\200>>:\336\274=-1\375=\261\340>=\250\244<=\037\356\260=\306\320\343<\312%\032\276K&\215<\222\202f\275\007<\267\275\215w\225\275W\002\302=l\362\237=\266g!<M3\036\275=f\275\275\340[\017=\233\000\350\275z\214\354\274\025\372\310\275\003\344\366;\213\326O=|\355\273\275\216V3=\302\337\373\274<\000?\275\022>L\275\'~9\276\270\306z<\013\231\276<\274\026\346<\322\207A:.}\340\273\023\240{\271\324\013\037>D\370\351=^u\261=\377\017\231\275W\213\r>\260z\325=\352\340\313;\213\200\242\275\027F3\275\244\212\212=/\026\251\275\350\304\004=\305l\362\2749\377H\275\255\355\313\275h@\312<:eQ=\240I\320\275\331\233\013>)v\025;\247\032\333\273H\'\240\275VKB\275\2658\321=\222\212\364<1T\216;{\027\243=CR =Vs#=\357Eo=\251t\230=E\370\373\275?\001\">k\235*\275\004\273\024>u\224\254=-N\227=\032\311\024\275\360o\200=\207\244\'\276\325t)\276\n\250\004\275]@\t\275\327\227\000=_\244\304=\221\325\207=%S\245=\353#$=\317\312Q\275\223\342\365\275\214\214\276=K\205\274\275\002z\t=i\213\032\275\000\306\245\275\207x\037>\252\276\024\275\000\003\237\275(\334\260;a@\">bM\013>\325\"\330<r\364\320<\373\030W=\275\261\206=(\025\336<\017\002\233\275=\303\010\275\340\315\353=\204\317\240<\260Q}=\005\272\226\274\356p\324\275sf1>\267.N=\033\372\343=\0130G\276 \241\032>\252Sp\275^S~\275[.\004\276V\256\355\275\213YH<t`\001=$\365\244\273`\002\007\276\316\316\330=\372do=\006\333\013>\023J\277\275\r\"\270\275\307\302\177\275\206\222y;D\264\242=k\014\222\273kb\352\275i\306(=\252\307\024\276K\\\206\275\346\374M\276b\223\240=\002\353=\276\336\312\336\275#Ze>\260L\224=P\016I=c\345\256\275\223\'\272=\370\247\251\275\344\034\356\275\333[|\272\025\217\025<j\217\234;\010\'/=\t9\211\275\220\276\230\274v\205*>\030\344W>\022\331~\275\245g8\275\000(\023>\002\273\023>K{\220=\240T\230=*Y\243=\'\227\000\276\311(\253\275\261\335>\274p\234\014\276\335\236\322\275\246\315\245=\361,\t=\354M\021>\331,\260=\020\014\343<\323\204|=\363\327-=C\000\\=\201\262\036\276\310f\021\276\322\216\016>\210e\313\275\374\251\332=o\2034=\224\246\022\276\013\361\006>~\307M=AUN\275[\345\333;\307\t\317\275A\267\266=s\212\235\275c\367\004>R=\200\275+J\377\275\344A?\273#S\206\2743J\303=\307\006\302;=\376\000\276<#\270=\365\212\211=w39=\334\222[>\202\307\314\275\265\2753\276L\177F\276\010\274\370=\236\243\036<\017W\246\2755~\n>-\216W=TG\013=\205N9>\014\247r=\304\037\235\275\352\r*\276\212\336\375\275\263\033\007\275\032\370\005\276\267\006\001>D1O>\263\202\006<\032W2=b\030!\276\371\302\337\273\025]\300=\341\230d\275\323~@\276a\230\210\276:\305y>W\241\240=\014\033\240=\307|,\274$\253!\276H\002\345<\341\014\352\275\240\273\271\275Ne\251\275)\361\225\275\210fV>\2161\235=\3246\003\275\337.\030\275\333\221\021:\004\")\276\030\027\241\275lOi=\016up;|@=\276\002;\375=Yw,=\013\356C\273\245\265\332=\203\316\337\274m\315\303=\376-\273\275|\344\231=O~\013\276\221\307\033\275\2021*>\376_,\271\211\211#\276\361\357\245=_\252+=\3565\325=\267\251X<\272\325\212\273\320&\010\276\027b9\275\375\221\245\275\372S\265=\005\234\037<\274\n\362=B\030\234<\231\341\237\275\245E\266=\317\034\354=K\034\254\275PNX\275\007\211\023=\217\000\205=K\000\'\276\260mD>\256\2605\2760A(>\251\\\262\275\261#:\276\315\'4=\217\302\324\275\276\"\022>i\302\300\272!\205\320\275\0302\377\275\241\235\200=\002\311W\274(4\251=\363\034\256:^\327\356\275\246\330\210\274\356f\026>\357\2570>\275p\002\274\332=\233;\2444\234=\006\n\214=\221c\372\275\320>\">#l\364\275\274\314\257<\237|\277<U\316\232=\204\245\302=\207*g=\316\243\205=\325\355w\274n\327\006>\237w\254=\203O\241\275\222\006\035=\316\"\006=#\332\324<\224\240\017\276V\236\271=\330\340~=\t5\333\275\005\330\032>I\276\037\274\367\200\331\275r\0146\276\252;G\276\2274\320=\265\177\232:\257\267\273;\232x\356=\352\010\005<\223\226\025\276\363\211W=cg\305=\375o\230\2748\017\"\276\246\306\017\276\244\302\227=\007n\020=\377\376\205\274\365\037\245\275\347\240\275\274.\260\243<\323 \014\276\n\031.\275\372W\202=\334A\244=9x\247;\245\301\017\276\353z}=$\003\257=\"\253U=H\221\366\275>P\003\276\342\235Y\275\002\234\355\275\257\321\226\275\365\371z\274[;<\275=\314\004\276 \337#<\013Jf=4\355H\275\003z\020\275AaI=\222\206\001\2757\000\r\276\027/\212=\n\261\230=3\030\342<8\212\347\274\3736h<\364g\255=\2654\">\2610\t>\207\370\003\276cKk=\323\255#\276\363B\020\276P?Q\275\262e\257=I\314\307=\027\267\207\274\220\327\r\276\370\255\214\275D$\270<`B\r\274Cl\376\274\225\300\217=\265B\037>\211=?\273\351\363L\275\030q\031>\2124\316\275\214K_=G\356\350;|{u\275%$\330=\347\003\013>\373A\207=\253\177\002;\235\251\240\272\276{\213=\364\260\235<\376\220 \274\255$\272;\372\313o\275B.\007>F\352\202\275\241\307\213=\025X@\276\203\222A>j\020\274=\246C\035>\037\351\270\274%\025\236\274\210\272\200\275\364!y\274\352\360\236:\2236\34791\3370\275\277)0\275D\375\373<G\230H\274\216\372\262\275\337\274\273=\242M\361=\367\215\265\275\020\335\267=\352\216\031>8\237u<R\311&<H\0108\276\010\374M=\346\245\331\274\377\316\346\274\003\324\230\271Z@\"<B\025\225;\351/+\274:ZA>\261#\276<H\347%\274\233%_=\355/L<\232\3476\276TG\230\275{U\243=|\372\020\276\216\254\300\275\366\3100>F] \276\316)p<\273_\006=\027\317\004\276\370\253\020=FS\222\275\347\252\345=\357\334\250<nb\266\274F\\\332\274\335\231\203<\315\344 =\ts\306\275)\270\n\275]Y5<\226\353\362;q\247&=7}P\275gV\346\275\2428\370\275\207\003 ;\263P\346\274!\322\300\275\301\241\022\276bnl\275\002\326n<\314\206\323\275\371\316~\274\253\006W\275\241b\001\276\225;\360\274bn\201=w\013\315<^T\223=/\357\333<+V(\276\2016\n\275i\023\332<5\316\023\275\216t\306=)\360\212\274\256,\352<\265\202\275=l\366\342\275\367\350\326<%\214\254\274Y6i<uZ\221=\257JX\275\"0\314\274\334Q%\275P\301 >F\245\352=\204S\300\275\315\007\224\275_\257\002\275\363\235.\274\372\340\322\275g?\036\275\261l\345\274W\320\251\274\212\267\271\275\276\372\337\275F\261\252\275\253\3742>-\340\244=13\224\273\367\310\242\275E\320\t=\2744\201\275{o;=\020\224\256\275\275Z\252<zv\256\274\275\276\321\2742\371\201\275\275\375\220\275\353\004\366=\024\237\346<\336\204\272\275\177\351\345\275\201\313\332\274\353\224<\273\377C\243=;\326\213\275i+d=\275\300A<z\365\352=\215\227k<\334\020\254<\272/\216\275\350\212{\275\007\211+\276m\027\334\2745\311\240=[-&\276\2510\217\275\366\276`\275b\271\357\274\210\252\341\274)\3508\276\265Ii\275\357\r\277<O\363\221=\376,\"\274\261\017\352<?\365\227;\260l\3179j\010\306=\214\373\034\2746*\324\275~9&=\376\275\t=a@(=\321\r\372=\203\331C\2750y\330\275\357w\304=@\006v\273\251\325\301=N\005\246\275\020r\322=..\326=Eh\247<\036c\210=\3010\211<w\207\271=\223\002;>\314m\310\275\347\275\255=\335\223\354\274h-3\275\273\013\242\274{\215\021>\323s5\276\004\370\205\275\320q%>J\273\301\275]\364\311=\3600\354\274_|R\275\201\210B>\217\020*\274\200\216\223\274\232\253\'\275E\032\272=p\340\320\275\007\020i\275G\304\001>\030Ld=\300N\215;_-\306<\205\276Q=\375\231&\273-\245\n\276\306\211B=\243\003_\275xO\346:\027>\253\273\333:\'\275\203\247r<Y2\221\275\037\306u=\233\214\016>S\243`\275\027w\262=G\362\245<~\023#=\013\213\021\276\332z\362\275\031\366C\275"
      }
    }
  }
}
node {
  name: "Variable/read"
  op: "Identity"
  input: "Variable"
  attr {
    key: "T"
    value {
      type: DT_FLOAT
    }
  }
  attr {
    key: "_class"
    value {
      list {
        s: "loc:@Variable"
      }
    }
  }
}
node {
  name: "Variable_1"
  op: "Const"
  attr {
    key: "dtype"
    value {
      type: DT_FLOAT
    }
  }
  attr {
    key: "value"
    value {
      tensor {
        dtype: DT_FLOAT
        tensor_shape {
          dim {
            size: 10
          }
        }
        tensor_content: "\336u;\276\210\303(\274\365l\241>\341Tl\276kWe?\271Z\367<?\035A?\214\341\205>\325\303\247\276\320\\_?"
      }
    }
  }
}
node {
  name: "Variable_1/read"
  op: "Identity"
  input: "Variable_1"
  attr {
    key: "T"
    value {
      type: DT_FLOAT
    }
  }
  attr {
    key: "_class"
    value {
      list {
        s: "loc:@Variable_1"
      }
    }
  }
}
node {
  name: "MatMul"
  op: "MatMul"
  input: "input"
  input: "Variable/read"
  attr {
    key: "T"
    value {
      type: DT_FLOAT
    }
  }
  attr {
    key: "transpose_a"
    value {
      b: false
    }
  }
  attr {
    key: "transpose_b"
    value {
      b: false
    }
  }
}
node {
  name: "add"
  op: "Add"
  input: "MatMul"
  input: "Variable_1/read"
  attr {
    key: "T"
    value {
      type: DT_FLOAT
    }
  }
}
node {
  name: "Relu"
  op: "Relu"
  input: "add"
  attr {
    key: "T"
    value {
      type: DT_FLOAT
    }
  }
}
node {
  name: "Variable_2"
  op: "Const"
  attr {
    key: "dtype"
    value {
      type: DT_FLOAT
    }
  }
  attr {
    key: "value"
    value {
      tensor {
        dtype: DT_FLOAT
        tensor_shape {
          dim {
            size: 10
          }
          dim {
            size: 10
          }
        }
        tensor_content: "W\2045>`\335\205\276\372-h>\223a??\335!\r\275T\223c\277\250\023J>V\010\225\277\272\375|\2766\344\230?\332\033H?o_~\277\310\205\275\276%\004\014@C\276/\277\261{\267?\020o\230\277\205\271\227\277xkD?\377\r$\2775!;=\246!\240\277\t:2?\017\257\252\277C\331\353?c\255\374>w#\257?[0\336\277\024\307\004=%\327\223\276\023\323\360>c\377\325\276\035/\307\275\353\035\246\277h\317O\276r\3677\276\257m\337\277\315n$?Z\302\261?S\317\201?\217X\341?\312\300#\277\016\223\027?v\370\314<q\267\317\277\000\205\212?\303\242\223=Si\004?\026\271\233\277e\365<\277,\031\343\276\322L\274=\314*\003@\314\324\250?\365d\276\276\210.\234\277\216:\213\277\370\211\236?\022 6\277\240\324\217\277*\231\306\277\217\276\216\276\361$\325\277t7\t=.\373u?\n?\226\276\336\037\031=B\252\366?\356|\257\275\001\022\252?aL\222?\347J6\277\302\263c\27758\321\275\032\274\036>\003$\344>\204!c?8\211\032?y[\000\2764@\302\277\242\013\336\276t\203}?/\372\242?E\320U\276l\006\313\277:A\250\276\217\226\252?\205\002\360\276q\236\201?6\253\212\277\331I\215\277\016 \377?eVz\277\026a\205\276\262C\305>\220\020\215?\303~\254\276!7`\277\253\323Z>,T\";"
      }
    }
  }
}
node {
  name: "Variable_2/read"
  op: "Identity"
  input: "Variable_2"
  attr {
    key: "T"
    value {
      type: DT_FLOAT
    }
  }
  attr {
    key: "_class"
    value {
      list {
        s: "loc:@Variable_2"
      }
    }
  }
}
node {
  name: "Variable_3"
  op: "Const"
  attr {
    key: "dtype"
    value {
      type: DT_FLOAT
    }
  }
  attr {
    key: "value"
    value {
      tensor {
        dtype: DT_FLOAT
        tensor_shape {
          dim {
            size: 10
          }
        }
        tensor_content: "t\262\326\276\213K\350>\017:4\274\005\367\320\273\205\307\342>\321z\013?\374%\273;h\230\266>\tq\014\277\261\3269>"
      }
    }
  }
}
node {
  name: "Variable_3/read"
  op: "Identity"
  input: "Variable_3"
  attr {
    key: "T"
    value {
      type: DT_FLOAT
    }
  }
  attr {
    key: "_class"
    value {
      list {
        s: "loc:@Variable_3"
      }
    }
  }
}
node {
  name: "MatMul_1"
  op: "MatMul"
  input: "Relu"
  input: "Variable_2/read"
  attr {
    key: "T"
    value {
      type: DT_FLOAT
    }
  }
  attr {
    key: "transpose_a"
    value {
      b: false
    }
  }
  attr {
    key: "transpose_b"
    value {
      b: false
    }
  }
}
node {
  name: "add_1"
  op: "Add"
  input: "MatMul_1"
  input: "Variable_3/read"
  attr {
    key: "T"
    value {
      type: DT_FLOAT
    }
  }
}
node {
  name: "output"
  op: "Softmax"
  input: "add_1"
  attr {
    key: "T"
    value {
      type: DT_FLOAT
    }
  }
}
library {
}
